{
  "version": "1.0",
  "truncation": null,
  "padding": null,
  "added_tokens": [
    {
      "id": 0,
      "content": "<|endoftext|>",
      "single_word": false,
      "lstrip": false,
      "rstrip": false,
      "normalized": false,
      "special": true
    }
  ],
  "normalizer": null,
  "pre_tokenizer": {
    "type": "Whitespace"
  },
  "post_processor": null,
  "decoder": null,
  "model": {
    "type": "BPE",
    "dropout": null,
    "unk_token": null,
    "continuing_subword_prefix": null,
    "end_of_word_suffix": null,
    "fuse_unk": false,
    "byte_fallback": false,
    "ignore_merges": false,
    "vocab": {
      "<|endoftext|>": 0,
      "!": 1,
      "#": 2,
      "$": 3,
      "%": 4,
      "&": 5,
      "'": 6,
      "(": 7,
      ")": 8,
      "*": 9,
      "+": 10,
      ",": 11,
      "-": 12,
      ".": 13,
      "/": 14,
      "0": 15,
      "1": 16,
      "2": 17,
      "3": 18,
      "4": 19,
      "5": 20,
      "6": 21,
      "7": 22,
      "8": 23,
      "9": 24,
      ":": 25,
      ";": 26,
      "<": 27,
      "=": 28,
      ">": 29,
      "?": 30,
      "@": 31,
      "A": 32,
      "B": 33,
      "C": 34,
      "D": 35,
      "E": 36,
      "F": 37,
      "G": 38,
      "H": 39,
      "I": 40,
      "J": 41,
      "K": 42,
      "L": 43,
      "M": 44,
      "N": 45,
      "O": 46,
      "P": 47,
      "Q": 48,
      "R": 49,
      "S": 50,
      "T": 51,
      "U": 52,
      "V": 53,
      "W": 54,
      "X": 55,
      "Y": 56,
      "Z": 57,
      "[": 58,
      "\\": 59,
      "]": 60,
      "^": 61,
      "_": 62,
      "`": 63,
      "a": 64,
      "b": 65,
      "c": 66,
      "d": 67,
      "e": 68,
      "f": 69,
      "g": 70,
      "h": 71,
      "i": 72,
      "j": 73,
      "k": 74,
      "l": 75,
      "m": 76,
      "n": 77,
      "o": 78,
      "p": 79,
      "q": 80,
      "r": 81,
      "s": 82,
      "t": 83,
      "u": 84,
      "v": 85,
      "w": 86,
      "x": 87,
      "y": 88,
      "z": 89,
      "{": 90,
      "|": 91,
      "}": 92,
      "~": 93,
      "": 94,
      "¡": 95,
      "£": 96,
      "¤": 97,
      "¥": 98,
      "¦": 99,
      "©": 100,
      "«": 101,
      "¬": 102,
      "­": 103,
      "°": 104,
      "±": 105,
      "²": 106,
      "µ": 107,
      "¶": 108,
      "·": 109,
      "¸": 110,
      "»": 111,
      "¿": 112,
      "À": 113,
      "Á": 114,
      "Ç": 115,
      "É": 116,
      "Ë": 117,
      "Ö": 118,
      "×": 119,
      "Ü": 120,
      "à": 121,
      "á": 122,
      "â": 123,
      "ã": 124,
      "ä": 125,
      "ç": 126,
      "è": 127,
      "é": 128,
      "ê": 129,
      "ì": 130,
      "í": 131,
      "î": 132,
      "ï": 133,
      "ñ": 134,
      "ò": 135,
      "ó": 136,
      "ô": 137,
      "õ": 138,
      "ö": 139,
      "÷": 140,
      "ø": 141,
      "ù": 142,
      "ú": 143,
      "û": 144,
      "ü": 145,
      "ā": 146,
      "Đ": 147,
      "ē": 148,
      "ğ": 149,
      "ģ": 150,
      "İ": 151,
      "ı": 152,
      "ł": 153,
      "Ń": 154,
      "œ": 155,
      "Ş": 156,
      "ş": 157,
      "ū": 158,
      "̀": 159,
      "̂": 160,
      "̄": 161,
      "̠": 162,
      "̴": 163,
      "͠": 164,
      "α": 165,
      "β": 166,
      "А": 167,
      "Д": 168,
      "К": 169,
      "М": 170,
      "Т": 171,
      "Ш": 172,
      "Ю": 173,
      "Я": 174,
      "а": 175,
      "б": 176,
      "в": 177,
      "е": 178,
      "з": 179,
      "и": 180,
      "й": 181,
      "к": 182,
      "м": 183,
      "о": 184,
      "п": 185,
      "р": 186,
      "с": 187,
      "т": 188,
      "у": 189,
      "х": 190,
      "ч": 191,
      "щ": 192,
      "ь": 193,
      "я": 194,
      "ב": 195,
      "ג": 196,
      "ח": 197,
      "ט": 198,
      "י": 199,
      "ע": 200,
      "ת": 201,
      "،": 202,
      "؛": 203,
      "؜": 204,
      "؟": 205,
      "ء": 206,
      "آ": 207,
      "أ": 208,
      "ؤ": 209,
      "إ": 210,
      "ئ": 211,
      "ا": 212,
      "ب": 213,
      "ة": 214,
      "ت": 215,
      "ث": 216,
      "ج": 217,
      "ح": 218,
      "خ": 219,
      "د": 220,
      "ذ": 221,
      "ر": 222,
      "ز": 223,
      "س": 224,
      "ش": 225,
      "ص": 226,
      "ض": 227,
      "ط": 228,
      "ظ": 229,
      "ع": 230,
      "غ": 231,
      "ـ": 232,
      "ف": 233,
      "ق": 234,
      "ك": 235,
      "ل": 236,
      "م": 237,
      "ن": 238,
      "ه": 239,
      "و": 240,
      "ى": 241,
      "ي": 242,
      "ً": 243,
      "ٌ": 244,
      "ٍ": 245,
      "َ": 246,
      "ُ": 247,
      "ِ": 248,
      "ّ": 249,
      "ْ": 250,
      "ٓ": 251,
      "ٔ": 252,
      "ٕ": 253,
      "ٗ": 254,
      "ٙ": 255,
      "٠": 256,
      "١": 257,
      "٢": 258,
      "٣": 259,
      "٤": 260,
      "٥": 261,
      "٦": 262,
      "٧": 263,
      "٨": 264,
      "٩": 265,
      "٪": 266,
      "٭": 267,
      "ٰ": 268,
      "ٱ": 269,
      "ٳ": 270,
      "ٽ": 271,
      "پ": 272,
      "ځ": 273,
      "ڄ": 274,
      "چ": 275,
      "ډ": 276,
      "ڕ": 277,
      "ژ": 278,
      "ڜ": 279,
      "ڠ": 280,
      "ڤ": 281,
      "ڥ": 282,
      "ڨ": 283,
      "ک": 284,
      "ڪ": 285,
      "ڭ": 286,
      "گ": 287,
      "ھ": 288,
      "ہ": 289,
      "ۃ": 290,
      "ۅ": 291,
      "ۆ": 292,
      "ۈ": 293,
      "ی": 294,
      "ے": 295,
      "ۓ": 296,
      "۔": 297,
      "ۖ": 298,
      "ۗ": 299,
      "ۚ": 300,
      "ۛ": 301,
      "ۡ": 302,
      "ۣ": 303,
      "ݣ": 304,
      "ߘ": 305,
      "྾": 306,
      "ạ": 307,
      "ị": 308,
      "​": 309,
      "‌": 310,
      "‍": 311,
      "‎": 312,
      "‏": 313,
      "–": 314,
      "—": 315,
      "‘": 316,
      "’": 317,
      "“": 318,
      "”": 319,
      "„": 320,
      "•": 321,
      "…": 322,
      "‪": 323,
      "‫": 324,
      "‬": 325,
      "‰": 326,
      "‹": 327,
      "›": 328,
      "‼": 329,
      "⁉": 330,
      "⁦": 331,
      "⁧": 332,
      "⁩": 333,
      "⁽": 334,
      "₎": 335,
      "₩": 336,
      "€": 337,
      "⃝": 338,
      "℅": 339,
      "™": 340,
      "←": 341,
      "→": 342,
      "↔": 343,
      "↖": 344,
      "↗": 345,
      "↘": 346,
      "↙": 347,
      "↩": 348,
      "↪": 349,
      "↭": 350,
      "⇦": 351,
      "⇨": 352,
      "∆": 353,
      "√": 354,
      "∞": 355,
      "⊙": 356,
      "⋆": 357,
      "⌚": 358,
      "⌛": 359,
      "⏩": 360,
      "⏪": 361,
      "⏭": 362,
      "⏮": 363,
      "⏯": 364,
      "⏰": 365,
      "⏱": 366,
      "⏳": 367,
      "⏸": 368,
      "⑅": 369,
      "񖐊": 370,
      "񖐽": 371,
      "񗠊": 372,
      "񗠽": 373,
      "󰀊": 374,
      "󰈧": 375,
      "ال": 376,
      "..": 377,
      "ها": 378,
      "اا": 379,
      "لي": 380,
      "ات": 381,
      "ان": 382,
      "ين": 383,
      "دي": 384,
      "ما": 385,
      "لا": 386,
      "من": 387,
      "...": 388,
      "في": 389,
      "را": 390,
      "دا": 391,
      "با": 392,
      "كي": 393,
      "وو": 394,
      "مع": 395,
      "تي": 396,
      "وا": 397,
      "شي": 398,
      "بي": 399,
      "ري": 400,
      "نا": 401,
      "كت": 402,
      "غي": 403,
      "عل": 404,
      "ون": 405,
      "ول": 406,
      "اي": 407,
      "رج": 408,
      "هم": 409,
      "هه": 410,
      "يي": 411,
      "على": 412,
      "دو": 413,
      "حت": 414,
      "عن": 415,
      "رة": 416,
      "شو": 417,
      "يا": 418,
      "علي": 419,
      "عا": 420,
      "وق": 421,
      "كن": 422,
      "شا": 423,
      "تا": 424,
      "سي": 425,
      "هو": 426,
      "ااا": 427,
      "هي": 428,
      "رو": 429,
      "كان": 430,
      "وت": 431,
      "مي": 432,
      "كل": 433,
      "وج": 434,
      "رف": 435,
      "بق": 436,
      "بع": 437,
      "كا": 438,
      "خل": 439,
      "ني": 440,
      "سا": 441,
      "انا": 442,
      "الم": 443,
      "حا": 444,
      "تو": 445,
      "يني": 446,
      "حي": 447,
      "مة": 448,
      "فا": 449,
      "رب": 450,
      "لب": 451,
      "حد": 452,
      "ور": 453,
      "حتى": 454,
      "بال": 455,
      "هاد": 456,
      "راس": 457,
      "غا": 458,
      "....": 459,
      "ية": 460,
      "له": 461,
      "غير": 462,
      "مو": 463,
      "شوف": 464,
      "مر": 465,
      "ليها": 466,
      "وال": 467,
      "لق": 468,
      "جي": 469,
      "اااا": 470,
      "خا": 471,
      "ديال": 472,
      "بل": 473,
      "مت": 474,
      "فال": 475,
      "نو": 476,
      "خرج": 477,
      "حال": 478,
      "عند": 479,
      "تها": 480,
      "لو": 481,
      "جا": 482,
      "دة": 483,
      "معا": 484,
      "زي": 485,
      "بن": 486,
      "فيها": 487,
      "وي": 488,
      "لع": 489,
      "در": 490,
      "صا": 491,
      "كون": 492,
      "الا": 493,
      "بو": 494,
      "فت": 495,
      "كم": 496,
      "دات": 497,
      "لة": 498,
      "بة": 499,
      "وم": 500,
      "فيه": 501,
      "عيني": 502,
      "ليه": 503,
      "دخل": 504,
      "كر": 505,
      "عي": 506,
      "دار": 507,
      "فر": 508,
      "كات": 509,
      "بغي": 510,
      "لل": 511,
      "اش": 512,
      "حم": 513,
      "الي": 514,
      "هز": 515,
      "سم": 516,
      "بر": 517,
      "قا": 518,
      "ست": 519,
      "ولا": 520,
      "الله": 521,
      "بت": 522,
      "ير": 523,
      "هاا": 524,
      "رجع": 525,
      "لم": 526,
      "حس": 527,
      "هد": 528,
      "يت": 529,
      "زا": 530,
      "جة": 531,
      "باش": 532,
      "هههه": 533,
      "يدي": 534,
      "مش": 535,
      "رك": 536,
      "ود": 537,
      "طا": 538,
      "ليك": 539,
      "مشي": 540,
      "عرف": 541,
      "وس": 542,
      "الس": 543,
      "اتو": 544,
      "بلا": 545,
      "بس": 546,
      "داك": 547,
      "الع": 548,
      "ضح": 549,
      "رها": 550,
      "مم": 551,
      "جب": 552,
      "واحد": 553,
      "الح": 554,
      "طي": 555,
      "عليها": 556,
      "تق": 557,
      "جل": 558,
      "ليا": 559,
      "وب": 560,
      "كانت": 561,
      "حل": 562,
      "هض": 563,
      "قة": 564,
      "؟؟": 565,
      "قي": 566,
      "غادي": 567,
      "عة": 568,
      "الت": 569,
      "كاي": 570,
      "علا": 571,
      "مات": 572,
      "حط": 573,
      "اللي": 574,
      "خر": 575,
      "بط": 576,
      "ولي": 577,
      "راسها": 578,
      "قل": 579,
      "تش": 580,
      "راه": 581,
      "شاف": 582,
      "ينة": 583,
      "باب": 584,
      "تك": 585,
      "وص": 586,
      "مس": 587,
      "اني": 588,
      "تن": 589,
      "فين": 590,
      "شنو": 591,
      "طلع": 592,
      "دها": 593,
      "او": 594,
      ",,": 595,
      "سمع": 596,
      "نت": 597,
      "اات": 598,
      "عينيها": 599,
      "خلي": 600,
      "ووو": 601,
      "بعد": 602,
      "حاجة": 603,
      "فة": 604,
      "اه": 605,
      "شوية": 606,
      "الك": 607,
      "عليه": 608,
      "حة": 609,
      "قلب": 610,
      "بد": 611,
      "اتها": 612,
      "بين": 613,
      "واش": 614,
      "فاش": 615,
      "ضحك": 616,
      "فس": 617,
      "لك": 618,
      "وه": 619,
      "ديك": 620,
      "نتي": 621,
      "دم": 622,
      "تت": 623,
      "طو": 624,
      "وقف": 625,
      "دير": 626,
      "بحال": 627,
      "نز": 628,
      "فوق": 629,
      "نها": 630,
      "شع": 631,
      "جر": 632,
      "!!": 633,
      ":(": 634,
      "بز": 635,
      "مان": 636,
      "دابا": 637,
      "سر": 638,
      "ماشي": 639,
      "عاد": 640,
      "وهي": 641,
      "بص": 642,
      "حيت": 643,
      "مها": 644,
      "الق": 645,
      "لات": 646,
      "الد": 647,
      "غات": 648,
      "نق": 649,
      "اس": 650,
      "فو": 651,
      "خص": 652,
      "بان": 653,
      "الص": 654,
      "الخ": 655,
      "ولكن": 656,
      "مرة": 657,
      "حدا": 658,
      "ضرب": 659,
      "حتا": 660,
      "ييي": 661,
      "هنا": 662,
      "مز": 663,
      "هضر": 664,
      "لها": 665,
      "ضي": 666,
      "شافت": 667,
      "عد": 668,
      "علاش": 669,
      "راسو": 670,
      "حر": 671,
      "مل": 672,
      "بقا": 673,
      "تس": 674,
      "كيف": 675,
      "تف": 676,
      "الط": 677,
      "رض": 678,
      "نع": 679,
      "سو": 680,
      "حن": 681,
      "وهو": 682,
      "قبل": 683,
      "شف": 684,
      "صافي": 685,
      "تع": 686,
      "هادشي": 687,
      "عندو": 688,
      "عندها": 689,
      "قرب": 690,
      "ام": 691,
      "وجه": 692,
      "لت": 693,
      "قدا": 694,
      "قو": 695,
      "عارف": 696,
      "جن": 697,
      "حمد": 698,
      "سة": 699,
      "رت": 700,
      "شة": 701,
      "رات": 702,
      "بقات": 703,
      "عليك": 704,
      "ناض": 705,
      "لام": 706,
      "ههه": 707,
      "خو": 708,
      "الو": 709,
      "والو": 710,
      "الش": 711,
      "وع": 712,
      "مشا": 713,
      "خاص": 714,
      "ربي": 715,
      "باا": 716,
      "واق": 717,
      "لح": 718,
      "طة": 719,
      "مزي": 720,
      "بح": 721,
      "نفس": 722,
      "سين": 723,
      "قد": 724,
      "بلي": 725,
      "معاه": 726,
      "وووو": 727,
      "بكي": 728,
      "قت": 729,
      "وش": 730,
      "رد": 731,
      "غن": 732,
      "حبي": 733,
      "عينيه": 734,
      "واخا": 735,
      "صد": 736,
      "ينا": 737,
      "معاها": 738,
      "كنت": 739,
      "باس": 740,
      "جمع": 741,
      "يديها": 742,
      "واي": 743,
      "قول": 744,
      "الف": 745,
      "نتا": 746,
      "طع": 747,
      "بدا": 748,
      "بنت": 749,
      "زو": 750,
      "بها": 751,
      "يه": 752,
      "يد": 753,
      "ريق": 754,
      "لكن": 755,
      ".....": 756,
      "عين": 757,
      "زة": 758,
      "يييي": 759,
      "سات": 760,
      "نهار": 761,
      "فها": 762,
      "حش": 763,
      "رق": 764,
      "عليا": 765,
      "حدة": 766,
      "صة": 767,
      "كاين": 768,
      "مشات": 769,
      "كلشي": 770,
      "الأ": 771,
      "ضا": 772,
      "غان": 773,
      "بغيت": 774,
      "الباب": 775,
      "عنق": 776,
      "ملي": 777,
      "قدر": 778,
      "كو": 779,
      "أنا": 780,
      "اخ": 781,
      "برا": 782,
      "مخ": 783,
      "كيشوف": 784,
      "الج": 785,
      "عندي": 786,
      "بيها": 787,
      "مري": 788,
      "هر": 789,
      "ضة": 790,
      "كيت": 791,
      "طلق": 792,
      "يدو": 793,
      "عو": 794,
      "بتسا": 795,
      "فط": 796,
      "هزات": 797,
      "عمر": 798,
      "وقت": 799,
      "راا": 800,
      "ايا": 801,
      "**": 802,
      "ماا": 803,
      "فون": 804,
      "مك": 805,
      "زين": 806,
      "خرجات": 807,
      "الة": 808,
      "كتشوف": 809,
      "رر": 810,
      "سل": 811,
      "هادي": 812,
      "خلا": 813,
      "بج": 814,
      "هبط": 815,
      "نس": 816,
      "ديالو": 817,
      "بيت": 818,
      "فف": 819,
      "تص": 820,
      "نور": 821,
      "وني": 822,
      "ياك": 823,
      "رح": 824,
      "منها": 825,
      "تما": 826,
      "زيد": 827,
      "يديه": 828,
      "طق": 829,
      "مكن": 830,
      "بنتي": 831,
      "ذا": 832,
      "عائ": 833,
      "واا": 834,
      "بك": 835,
      "وحدة": 836,
      "ثر": 837,
      "بيل": 838,
      "اتي": 839,
      "ند": 840,
      ":-": 841,
      "خد": 842,
      "ولد": 843,
      "فكر": 844,
      "داكشي": 845,
      "مص": 846,
      "غت": 847,
      "غاي": 848,
      "معاك": 849,
      "انة": 850,
      "عما": 851,
      "بيه": 852,
      "مال": 853,
      "اما": 854,
      "مني": 855,
      "دوز": 856,
      "تيلي": 857,
      "دخلات": 858,
      "فيا": 859,
      "كول": 860,
      "ليل": 861,
      "فهم": 862,
      "باغي": 863,
      "ناا": 864,
      "حرك": 865,
      "جات": 866,
      "جو": 867,
      "شعرها": 868,
      "وقع": 869,
      "جري": 870,
      "جه": 871,
      "دارت": 872,
      "موع": 873,
      "عاود": 874,
      "شد": 875,
      "طر": 876,
      "وها": 877,
      "فع": 878,
      "فق": 879,
      "صر": 880,
      "عندك": 881,
      "الغ": 882,
      "بغ": 883,
      "زوج": 884,
      "كاا": 885,
      "صوت": 886,
      "زاف": 887,
      "نمشي": 888,
      "شكون": 889,
      "منو": 890,
      "بتسامة": 891,
      "حنا": 892,
      "بتا": 893,
      "قال": 894,
      "ماي": 895,
      "لقا": 896,
      "هوم": 897,
      "فرح": 898,
      "يك": 899,
      "هااا": 900,
      "ماء": 901,
      "بزاف": 902,
      "بغا": 903,
      "الى": 904,
      "عط": 905,
      "رية": 906,
      "الل": 907,
      "كيفاش": 908,
      "أن": 909,
      "ماما": 910,
      "مزال": 911,
      "تخ": 912,
      "عني": 913,
      "محمد": 914,
      "كري": 915,
      "شحال": 916,
      "مغ": 917,
      "ناس": 918,
      "ديها": 919,
      "دور": 920,
      "بدات": 921,
      "ديالها": 922,
      "الن": 923,
      "حواي": 924,
      "بش": 925,
      "فيهم": 926,
      "وصل": 927,
      "بغات": 928,
      "يل": 929,
      "غوت": 930,
      "مق": 931,
      "حو": 932,
      "سها": 933,
      "سمي": 934,
      "معايا": 935,
      "اص": 936,
      "به": 937,
      "فل": 938,
      "سك": 939,
      "بات": 940,
      "خير": 941,
      "داا": 942,
      "باح": 943,
      "ناضت": 944,
      "سن": 945,
      "حيد": 946,
      "حسن": 947,
      "راسك": 948,
      "حاول": 949,
      "جاي": 950,
      "جالس": 951,
      "ولدي": 952,
      "زاد": 953,
      "والله": 954,
      "شات": 955,
      "ااف": 956,
      "وجهها": 957,
      "مد": 958,
      "كمل": 959,
      "بب": 960,
      "مض": 961,
      "مرو": 962,
      "انت": 963,
      "وقال": 964,
      "مرا": 965,
      "مزيان": 966,
      "بغيتي": 967,
      "داخل": 968,
      "زل": 969,
      "وسف": 970,
      "وك": 971,
      "قلت": 972,
      "فمها": 973,
      "يلا": 974,
      "وانا": 975,
      "فيك": 976,
      "ااااا": 977,
      "تل": 978,
      "ااات": 979,
      "نشوف": 980,
      "باقي": 981,
      "فات": 982,
      "دية": 983,
      "شك": 984,
      "ياة": 985,
      "بتاسم": 986,
      "صل": 987,
      "جيه": 988,
      "كس": 989,
      "تحت": 990,
      "طل": 991,
      "بلاص": 992,
      "اخر": 993,
      "بلة": 994,
      "هئ": 995,
      "حب": 996,
      "ديا": 997,
      "ديري": 998,
      "مار": 999,
      "مام": 1000,
      "تر": 1001,
      "مج": 1002,
      "ديه": 1003,
      "خرجو": 1004,
      "كبي": 1005,
      "ولة": 1006,
      "صو": 1007,
      "الز": 1008,
      "وقالت": 1009,
      "اتهم": 1010,
      "كانو": 1011,
      "خي": 1012,
      "بصوت": 1013,
      "الما": 1014,
      "ااه": 1015,
      "أو": 1016,
      "صب": 1017,
      "ار": 1018,
      "انها": 1019,
      "وار": 1020,
      "يع": 1021,
      "راسي": 1022,
      "مكت": 1023,
      "عر": 1024,
      "خة": 1025,
      "ديما": 1026,
      "بقى": 1027,
      "صي": 1028,
      "رجعات": 1029,
      "اع": 1030,
      "بية": 1031,
      "يوسف": 1032,
      "الب": 1033,
      "ليهم": 1034,
      "سلم": 1035,
      "قالت": 1036,
      "ته": 1037,
      "كة": 1038,
      "__": 1039,
      "قدام": 1040,
      "نن": 1041,
      "وجهو": 1042,
      "لس": 1043,
      "ورا": 1044,
      "انو": 1045,
      "فحال": 1046,
      "كتر": 1047,
      "عليهم": 1048,
      "كين": 1049,
      "اان": 1050,
      "ااش": 1051,
      "ضر": 1052,
      "جلس": 1053,
      "ريا": 1054,
      "خط": 1055,
      "بابا": 1056,
      "لبي": 1057,
      "خارج": 1058,
      "مسح": 1059,
      "وض": 1060,
      "شش": 1061,
      "خدا": 1062,
      "هيا": 1063,
      "داي": 1064,
      "تكون": 1065,
      "الر": 1066,
      "اح": 1067,
      "ساعة": 1068,
      "نج": 1069,
      "بشوية": 1070,
      "راجل": 1071,
      "الحال": 1072,
      "ملة": 1073,
      "حطات": 1074,
      "وف": 1075,
      "عيط": 1076,
      "شفاي": 1077,
      "وط": 1078,
      "ياسين": 1079,
      "وما": 1080,
      "قطع": 1081,
      "لاح": 1082,
      "للي": 1083,
      "لابس": 1084,
      "جدي": 1085,
      "وكت": 1086,
      "الوقت": 1087,
      "تح": 1088,
      "درا": 1089,
      "ههههه": 1090,
      "اهئ": 1091,
      "داز": 1092,
      "وز": 1093,
      "مين": 1094,
      "بار": 1095,
      "بخ": 1096,
      "دموع": 1097,
      "كنتي": 1098,
      "امي": 1099,
      "مست": 1100,
      "وسط": 1101,
      "موبيل": 1102,
      "سيف": 1103,
      "وكي": 1104,
      "سكت": 1105,
      "سية": 1106,
      "أس": 1107,
      "رعة": 1108,
      "لبس": 1109,
      "قات": 1110,
      "واج": 1111,
      "اجي": 1112,
      "كثر": 1113,
      "هوا": 1114,
      "تب": 1115,
      "كد": 1116,
      "رفة": 1117,
      "هضرة": 1118,
      "اد": 1119,
      "ااك": 1120,
      "غدا": 1121,
      "راء": 1122,
      "ربة": 1123,
      "دخلو": 1124,
      "جبد": 1125,
      "):-": 1126,
      "وة": 1127,
      "حوايج": 1128,
      "معن": 1129,
      "راك": 1130,
      "نيش": 1131,
      "لعب": 1132,
      "تيليفون": 1133,
      "نيا": 1134,
      "يش": 1135,
      "لين": 1136,
      "بيب": 1137,
      "حياة": 1138,
      "جاوب": 1139,
      "مه": 1140,
      "دوش": 1141,
      "مالك": 1142,
      "قلبها": 1143,
      "فاء": 1144,
      "يكون": 1145,
      "نش": 1146,
      "شدات": 1147,
      "منين": 1148,
      "عجب": 1149,
      "لباب": 1150,
      "فهاد": 1151,
      "يدها": 1152,
      "نزل": 1153,
      "تشوف": 1154,
      "وخ": 1155,
      "تم": 1156,
      "عاا": 1157,
      "داير": 1158,
      "زينب": 1159,
      "عنقها": 1160,
      "عب": 1161,
      "لينا": 1162,
      "رجليها": 1163,
      "عش": 1164,
      "تنهد": 1165,
      "صباح": 1166,
      "ونس": 1167,
      "كولشي": 1168,
      "هاش": 1169,
      "سخ": 1170,
      "ديالي": 1171,
      "تمشي": 1172,
      "حاج": 1173,
      "عع": 1174,
      "لف": 1175,
      "وجها": 1176,
      "حك": 1177,
      "كاع": 1178,
      "دوي": 1179,
      "وقفات": 1180,
      "حلات": 1181,
      "ضو": 1182,
      "زن": 1183,
      "طلب": 1184,
      "بقاو": 1185,
      "ووف": 1186,
      "شوفي": 1187,
      "فالم": 1188,
      "خاي": 1189,
      "كتا": 1190,
      "نص": 1191,
      "يس": 1192,
      "يخ": 1193,
      "طلعات": 1194,
      "عصا": 1195,
      "العا": 1196,
      "ليلى": 1197,
      "قر": 1198,
      "كلا": 1199,
      "ناع": 1200,
      "قص": 1201,
      "دمة": 1202,
      "شها": 1203,
      "حلي": 1204,
      "كار": 1205,
      "نطق": 1206,
      "قاد": 1207,
      "ثة": 1208,
      "جيب": 1209,
      "ماس": 1210,
      "لقات": 1211,
      "باغا": 1212,
      "معرف": 1213,
      "تيش": 1214,
      "امم": 1215,
      "يلاه": 1216,
      "جنب": 1217,
      "حداها": 1218,
      "راق": 1219,
      "حسا": 1220,
      "دوك": 1221,
      "فض": 1222,
      "بنات": 1223,
      "غل": 1224,
      "جاد": 1225,
      "سير": 1226,
      "حق": 1227,
      "طريق": 1228,
      "كتبكي": 1229,
      "ويلي": 1230,
      "سنا": 1231,
      "نية": 1232,
      "فش": 1233,
      "اااش": 1234,
      "حسات": 1235,
      "الاه": 1236,
      "هاكا": 1237,
      "بقيت": 1238,
      "لله": 1239,
      "دغي": 1240,
      "فيق": 1241,
      "عات": 1242,
      "ولات": 1243,
      "بزااف": 1244,
      "دبا": 1245,
      "صدر": 1246,
      "رام": 1247,
      "هكا": 1248,
      "فن": 1249,
      "ركة": 1250,
      "واقف": 1251,
      "فتح": 1252,
      "خدي": 1253,
      "فاك": 1254,
      "فك": 1255,
      "مريم": 1256,
      "ابنتي": 1257,
      "رس": 1258,
      "طوي": 1259,
      "هرة": 1260,
      "التي": 1261,
      "ختي": 1262,
      "جاب": 1263,
      "قولي": 1264,
      "سيري": 1265,
      "اااه": 1266,
      "دين": 1267,
      "لاش": 1268,
      "دام": 1269,
      "ديرو": 1270,
      "سارة": 1271,
      "اول": 1272,
      "تبع": 1273,
      "مهم": 1274,
      "وح": 1275,
      "هذا": 1276,
      "منك": 1277,
      "هدر": 1278,
      "الدين": 1279,
      "توحش": 1280,
      "عض": 1281,
      "مكان": 1282,
      "وون": 1283,
      "شفت": 1284,
      "......": 1285,
      "قف": 1286,
      "معاهم": 1287,
      "جوج": 1288,
      "كش": 1289,
      "ورجع": 1290,
      "وخرج": 1291,
      "روح": 1292,
      "راج": 1293,
      "غيرة": 1294,
      "البنت": 1295,
      "وان": 1296,
      "فخ": 1297,
      "يالاه": 1298,
      "مكي": 1299,
      "منة": 1300,
      "كامل": 1301,
      "شن": 1302,
      "يشوف": 1303,
      "اله": 1304,
      "لدار": 1305,
      "اء": 1306,
      "مح": 1307,
      "عت": 1308,
      "بدل": 1309,
      "حبيبة": 1310,
      "كلها": 1311,
      "تفكر": 1312,
      "كيد": 1313,
      "شر": 1314,
      "كره": 1315,
      "راها": 1316,
      "غمض": 1317,
      "عارفة": 1318,
      "بابتسامة": 1319,
      "مور": 1320,
      "بجوج": 1321,
      "درت": 1322,
      "است": 1323,
      "ماعرف": 1324,
      "اااك": 1325,
      "انية": 1326,
      "نوض": 1327,
      "قدرش": 1328,
      "السي": 1329,
      "عماد": 1330,
      "موت": 1331,
      "اتش": 1332,
      "تسنا": 1333,
      "سول": 1334,
      "حاا": 1335,
      "بلاصة": 1336,
      "لوس": 1337,
      "بصح": 1338,
      "ييه": 1339,
      "سد": 1340,
      "يونس": 1341,
      "اااااا": 1342,
      "اسد": 1343,
      "جود": 1344,
      "انه": 1345,
      "الدار": 1346,
      "حنان": 1347,
      "بوس": 1348,
      "عائشة": 1349,
      "زع": 1350,
      "فهد": 1351,
      "بير": 1352,
      "باست": 1353,
      "زار": 1354,
      "نض": 1355,
      "خويا": 1356,
      "كها": 1357,
      "مقا": 1358,
      "عقل": 1359,
      "تجي": 1360,
      "تاح": 1361,
      "طري": 1362,
      "درتي": 1363,
      "الكا": 1364,
      "عندهم": 1365,
      "حح": 1366,
      "بزز": 1367,
      "يجي": 1368,
      "خفي": 1369,
      "قرا": 1370,
      "اليوم": 1371,
      "جرها": 1372,
      "خليني": 1373,
      "خاا": 1374,
      "شاء": 1375,
      "الشي": 1376,
      "تلا": 1377,
      "نورسين": 1378,
      "هء": 1379,
      "دق": 1380,
      "تاني": 1381,
      "الناس": 1382,
      "رجة": 1383,
      "عبد": 1384,
      "ومن": 1385,
      "وتر": 1386,
      "بوحد": 1387,
      "كلمة": 1388,
      "عاون": 1389,
      "رجل": 1390,
      "سيل": 1391,
      "وليد": 1392,
      "عصام": 1393,
      "تخرج": 1394,
      "عطا": 1395,
      "وجد": 1396,
      "ياسر": 1397,
      "؟؟؟": 1398,
      "بسرعة": 1399,
      "عها": 1400,
      "ندير": 1401,
      "حداه": 1402,
      "حركات": 1403,
      "ديالك": 1404,
      "يها": 1405,
      "الهضرة": 1406,
      "فية": 1407,
      "شوي": 1408,
      "اصلا": 1409,
      "واقفة": 1410,
      "الث": 1411,
      "زير": 1412,
      "فاي": 1413,
      "جمي": 1414,
      "فح": 1415,
      "بيك": 1416,
      "البا": 1417,
      "ليلة": 1418,
      "نقول": 1419,
      "شفايفها": 1420,
      "غر": 1421,
      "ظة": 1422,
      "شاد": 1423,
      "بتي": 1424,
      "عاي": 1425,
      "جالسة": 1426,
      "برد": 1427,
      "وية": 1428,
      "قبال": 1429,
      "زوينة": 1430,
      "قلبي": 1431,
      "جلسات": 1432,
      "غو": 1433,
      "يير": 1434,
      "اج": 1435,
      "بيا": 1436,
      "عص": 1437,
      "تبسم": 1438,
      "كبر": 1439,
      "نه": 1440,
      "وصلو": 1441,
      "بعض": 1442,
      "يارة": 1443,
      "شعر": 1444,
      "بارك": 1445,
      "جاو": 1446,
      "جاا": 1447,
      "خرى": 1448,
      "اوا": 1449,
      "صال": 1450,
      "نخ": 1451,
      "هة": 1452,
      "اااف": 1453,
      "هما": 1454,
      "ضور": 1455,
      "دغيا": 1456,
      "كسي": 1457,
      "نزر": 1458,
      "فمو": 1459,
      "نسي": 1460,
      "جد": 1461,
      "بيض": 1462,
      "وكل": 1463,
      "هدا": 1464,
      "برو": 1465,
      "لتحت": 1466,
      "عينو": 1467,
      "رجال": 1468,
      "هل": 1469,
      "كتب": 1470,
      "يح": 1471,
      "جهة": 1472,
      "عطي": 1473,
      "اااااااا": 1474,
      "زال": 1475,
      "زعما": 1476,
      "راب": 1477,
      "باه": 1478,
      "ميسا": 1479,
      "فرحة": 1480,
      "طف": 1481,
      "دموعها": 1482,
      "قلبو": 1483,
      "الحاجة": 1484,
      "والي": 1485,
      "سما": 1486,
      "حمل": 1487,
      "ومشا": 1488,
      "حمر": 1489,
      "نعس": 1490,
      "صف": 1491,
      "ضب": 1492,
      "اار": 1493,
      "ومشات": 1494,
      "ضحكة": 1495,
      "قري": 1496,
      "ؤاد": 1497,
      "وهيا": 1498,
      "تهم": 1499,
      "بقاش": 1500,
      "طيح": 1501,
      "شه": 1502,
      "باسها": 1503,
      "اتك": 1504,
      "عاو": 1505,
      "عس": 1506,
      "صدرو": 1507,
      "أم": 1508,
      "ونتي": 1509,
      "بقوة": 1510,
      "شية": 1511,
      "خلاها": 1512,
      "قدامو": 1513,
      "سمح": 1514,
      "جوا": 1515,
      "ييت": 1516,
      "تزوج": 1517,
      "راني": 1518,
      "مراد": 1519,
      "راحة": 1520,
      "تيني": 1521,
      "وهوا": 1522,
      "وول": 1523,
      "الات": 1524,
      "عام": 1525,
      "عف": 1526,
      "لامار": 1527,
      "عائلة": 1528,
      "كرسي": 1529,
      "كلو": 1530,
      "::": 1531,
      "يق": 1532,
      "برة": 1533,
      "نيت": 1534,
      "دخلت": 1535,
      "لاا": 1536,
      "نمشيو": 1537,
      "خديجة": 1538,
      "جديد": 1539,
      "يعني": 1540,
      "ملام": 1541,
      "ابت": 1542,
      "لعندو": 1543,
      "شاا": 1544,
      ":~": 1545,
      "اختي": 1546,
      "أي": 1547,
      "هادا": 1548,
      "جهد": 1549,
      "ديت": 1550,
      "احم": 1551,
      "موو": 1552,
      "دفع": 1553,
      "هار": 1554,
      "شرب": 1555,
      "الها": 1556,
      "تنه": 1557,
      "ساا": 1558,
      "دك": 1559,
      "مية": 1560,
      "سان": 1561,
      "رط": 1562,
      "فؤاد": 1563,
      "دري": 1564,
      "الري": 1565,
      "نظ": 1566,
      "ريم": 1567,
      "نجي": 1568,
      "تيها": 1569,
      "لعندها": 1570,
      "ضرو": 1571,
      "وفاء": 1572,
      "روج": 1573,
      "سلي": 1574,
      "ئة": 1575,
      "حية": 1576,
      "صور": 1577,
      "يمكن": 1578,
      "لخ": 1579,
      "بعدا": 1580,
      "رجعو": 1581,
      "الية": 1582,
      "المع": 1583,
      "هن": 1584,
      "حياتي": 1585,
      "إي": 1586,
      "خاط": 1587,
      "غاا": 1588,
      "غرب": 1589,
      "فاط": 1590,
      "وصلات": 1591,
      "ناديا": 1592,
      "عاس": 1593,
      "شكرا": 1594,
      "ضية": 1595,
      "قدامها": 1596,
      "المن": 1597,
      "هوما": 1598,
      "المرة": 1599,
      "خلات": 1600,
      "فار": 1601,
      "سمين": 1602,
      "كيضحك": 1603,
      "ولو": 1604,
      "ونة": 1605,
      "مكاين": 1606,
      "اخرى": 1607,
      "شخص": 1608,
      "لور": 1609,
      "واقع": 1610,
      "صغيرة": 1611,
      "بعيني": 1612,
      "فرا": 1613,
      "زز": 1614,
      "همس": 1615,
      "الكل": 1616,
      "سيدي": 1617,
      "كلي": 1618,
      "كمال": 1619,
      "):": 1620,
      "دايرة": 1621,
      "ملا": 1622,
      "رعد": 1623,
      "هوة": 1624,
      "اليا": 1625,
      "مشى": 1626,
      "تحل": 1627,
      "بلاصتها": 1628,
      "طوموبيل": 1629,
      "سلمى": 1630,
      "شادة": 1631,
      "الحمد": 1632,
      "تاج": 1633,
      "زيدي": 1634,
      "بداو": 1635,
      "خدمة": 1636,
      "حدي": 1637,
      "جبل": 1638,
      "لابسة": 1639,
      "مسا": 1640,
      "ركب": 1641,
      "متي": 1642,
      "امين": 1643,
      "قيس": 1644,
      "عرفتي": 1645,
      "بااا": 1646,
      "وخا": 1647,
      "لغ": 1648,
      "ريماس": 1649,
      "ليفون": 1650,
      "تنهدات": 1651,
      "وور": 1652,
      "هههههه": 1653,
      "كاس": 1654,
      "النا": 1655,
      "نسا": 1656,
      "دوء": 1657,
      "بقاي": 1658,
      "بري": 1659,
      "قربات": 1660,
      "ساكت": 1661,
      "هاذ": 1662,
      "عق": 1663,
      "جاه": 1664,
      "دارو": 1665,
      "لبيت": 1666,
      "وردة": 1667,
      "وااا": 1668,
      "لعند": 1669,
      "طول": 1670,
      "البي": 1671,
      "اولدي": 1672,
      "بكل": 1673,
      "البنات": 1674,
      "بدون": 1675,
      "بيبة": 1676,
      "يص": 1677,
      "طار": 1678,
      "سمعات": 1679,
      "طاي": 1680,
      "غاديش": 1681,
      "تاا": 1682,
      "كنبغي": 1683,
      "حبس": 1684,
      "قلتي": 1685,
      "يتي": 1686,
      "صدرها": 1687,
      "عادي": 1688,
      "المهم": 1689,
      "جبه": 1690,
      "مرح": 1691,
      "نيشان": 1692,
      "غط": 1693,
      "الحاج": 1694,
      "عزي": 1695,
      "الض": 1696,
      "ياد": 1697,
      "نوضي": 1698,
      "بانت": 1699,
      "كح": 1700,
      "ووق": 1701,
      "دازت": 1702,
      "لد": 1703,
      "صبع": 1704,
      "ايوا": 1705,
      "مشاو": 1706,
      "معة": 1707,
      "بعيد": 1708,
      "عيش": 1709,
      "منا": 1710,
      "ضه": 1711,
      "هاز": 1712,
      "ابتسامة": 1713,
      "اشنو": 1714,
      "لبلا": 1715,
      "زوين": 1716,
      "ماريا": 1717,
      "هضرو": 1718,
      "رير": 1719,
      "نات": 1720,
      "خخ": 1721,
      "النهار": 1722,
      "****": 1723,
      "هور": 1724,
      "اب": 1725,
      "مشيت": 1726,
      "صح": 1727,
      "فج": 1728,
      "ملين": 1729,
      "مون": 1730,
      "توبة": 1731,
      "تقول": 1732,
      "بهاد": 1733,
      "كاتشوف": 1734,
      "حيط": 1735,
      "كايشوف": 1736,
      "باغ": 1737,
      "لقاها": 1738,
      "مدة": 1739,
      "جيت": 1740,
      "قتل": 1741,
      "كيش": 1742,
      "رقية": 1743,
      "وري": 1744,
      "تهاا": 1745,
      "قاطع": 1746,
      "مااا": 1747,
      "فعينيها": 1748,
      "يالله": 1749,
      "كتجري": 1750,
      "تغ": 1751,
      "بزاااف": 1752,
      "بعة": 1753,
      "تأ": 1754,
      "كبير": 1755,
      "لوطو": 1756,
      "رؤ": 1757,
      "لط": 1758,
      "البو": 1759,
      "بيهم": 1760,
      "ممم": 1761,
      "موسية": 1762,
      "ممكن": 1763,
      "فنفس": 1764,
      "خرجت": 1765,
      "كتش": 1766,
      "~~": 1767,
      "ضحكات": 1768,
      "مخل": 1769,
      "كية": 1770,
      "سى": 1771,
      "جبها": 1772,
      "طالع": 1773,
      "كيل": 1774,
      "ياا": 1775,
      "!!!": 1776,
      "الفي": 1777,
      "سفي": 1778,
      "؟!": 1779,
      "يف": 1780,
      "اسماء": 1781,
      "ييك": 1782,
      "وبدات": 1783,
      "''": 1784,
      "فاهم": 1785,
      "شدها": 1786,
      "ذن": 1787,
      "فشي": 1788,
      "عيب": 1789,
      "ريقة": 1790,
      "بوو": 1791,
      "ملامح": 1792,
      "مروى": 1793,
      "ايد": 1794,
      "واخة": 1795,
      "شافها": 1796,
      "نة": 1797,
      "هاديك": 1798,
      "ضار": 1799,
      "هزها": 1800,
      "مكنش": 1801,
      "زينة": 1802,
      "وصا": 1803,
      "سلان": 1804,
      "نان": 1805,
      "مير": 1806,
      "بنا": 1807,
      "البيت": 1808,
      "حوايجها": 1809,
      "يدير": 1810,
      "نف": 1811,
      "شفتي": 1812,
      "تز": 1813,
      "لبسات": 1814,
      "صبية": 1815,
      "بأ": 1816,
      "آخر": 1817,
      "متها": 1818,
      "شري": 1819,
      "روال": 1820,
      "هية": 1821,
      "وحط": 1822,
      "زادت": 1823,
      "كتحس": 1824,
      "لقاو": 1825,
      "ــ": 1826,
      "ساع": 1827,
      "هكاك": 1828,
      "فاطمة": 1829,
      "____": 1830,
      "اك": 1831,
      "منهم": 1832,
      "نوار": 1833,
      "للدار": 1834,
      "كك": 1835,
      "شافتو": 1836,
      "عشق": 1837,
      "غيثة": 1838,
      "تال": 1839,
      "شيماء": 1840,
      "حجب": 1841,
      "وحتى": 1842,
      "كلة": 1843,
      "الخير": 1844,
      "نزلات": 1845,
      "تاع": 1846,
      "تسمع": 1847,
      "الفر": 1848,
      "خوف": 1849,
      "وغ": 1850,
      "دد": 1851,
      "خت": 1852,
      "الطريق": 1853,
      "قالي": 1854,
      "اويلي": 1855,
      "هاجر": 1856,
      "خرا": 1857,
      "ليوم": 1858,
      "باك": 1859,
      "ثمان": 1860,
      "علينا": 1861,
      "ونا": 1862,
      "توما": 1863,
      "ودخل": 1864,
      "طح": 1865,
      "هارون": 1866,
      "مصدو": 1867,
      "الإ": 1868,
      "فالا": 1869,
      "ياسمين": 1870,
      "اللور": 1871,
      "ناعسة": 1872,
      "تة": 1873,
      "لقيت": 1874,
      "فور": 1875,
      "ضع": 1876,
      "صاا": 1877,
      "بتاسمات": 1878,
      "باها": 1879,
      "بغيتش": 1880,
      "زهرة": 1881,
      "كبيرة": 1882,
      "مول": 1883,
      "نعرف": 1884,
      "لأ": 1885,
      "متك": 1886,
      "ييييي": 1887,
      "يحي": 1888,
      "تعرف": 1889,
      "صبر": 1890,
      "مانة": 1891,
      "لحظة": 1892,
      "زات": 1893,
      "يين": 1894,
      "قيقة": 1895,
      "تات": 1896,
      "نعمة": 1897,
      "كاملين": 1898,
      "طاحت": 1899,
      "قها": 1900,
      "هرب": 1901,
      "حاب": 1902,
      "أة": 1903,
      "وخرجات": 1904,
      "اام": 1905,
      "وبدا": 1906,
      "!؟": 1907,
      "رغ": 1908,
      "علم": 1909,
      "شام": 1910,
      "لى": 1911,
      "براسها": 1912,
      "جس": 1913,
      "طلعو": 1914,
      "ااان": 1915,
      "لما": 1916,
      "يمشي": 1917,
      "بجهد": 1918,
      "طير": 1919,
      "عري": 1920,
      "مغي": 1921,
      "حسي": 1922,
      "هدشي": 1923,
      "وصافي": 1924,
      "ياله": 1925,
      "اناا": 1926,
      "شكل": 1927,
      "أر": 1928,
      "باينة": 1929,
      "الحالة": 1930,
      "يار": 1931,
      "اري": 1932,
      "الدم": 1933,
      "وووف": 1934,
      "رجليه": 1935,
      "كاملة": 1936,
      "تخل": 1937,
      "هاني": 1938,
      "جيتي": 1939,
      "جيهة": 1940,
      "الخدمة": 1941,
      "سلا": 1942,
      "بشي": 1943,
      "شغ": 1944,
      "فص": 1945,
      "..!": 1946,
      "جبدات": 1947,
      "لهاد": 1948,
      "فأ": 1949,
      "بعصبية": 1950,
      "بهدوء": 1951,
      "ظر": 1952,
      "حالة": 1953,
      "فقط": 1954,
      "ويا": 1955,
      "ينها": 1956,
      "كضحك": 1957,
      "مث": 1958,
      "تقلب": 1959,
      "عيشة": 1960,
      "خاصك": 1961,
      "هدي": 1962,
      "فري": 1963,
      "كريم": 1964,
      "حما": 1965,
      "وود": 1966,
      "ليالي": 1967,
      "عثمان": 1968,
      "يوم": 1969,
      "معانا": 1970,
      "حتها": 1971,
      "تابع": 1972,
      "مهدي": 1973,
      "هههههههه": 1974,
      "يعق": 1975,
      "خطو": 1976,
      "الحب": 1977,
      "ااس": 1978,
      "فيديها": 1979,
      "الطبيب": 1980,
      "مرض": 1981,
      "صغير": 1982,
      "طبيب": 1983,
      "وين": 1984,
      "الحا": 1985,
      "لفوق": 1986,
      "ريقها": 1987,
      "لداخل": 1988,
      "بعضي": 1989,
      "طات": 1990,
      "هبطات": 1991,
      "ليهاا": 1992,
      "خاصني": 1993,
      "حبيبي": 1994,
      "داء": 1995,
      "ااار": 1996,
      "لبا": 1997,
      "لااا": 1998,
      "طب": 1999,
      "لقاتو": 2000,
      "السا": 2001,
      "عنقو": 2002,
      "صوني": 2003,
      "ييين": 2004,
      "اممم": 2005,
      "خالتي": 2006,
      "عفاك": 2007,
      "صبا": 2008,
      "رز": 2009,
      "عائل": 2010,
      "سفيان": 2011,
      "رع": 2012,
      "شعرو": 2013,
      "عمي": 2014,
      "حيدات": 2015,
      "غري": 2016,
      "يحيى": 2017,
      "بالم": 2018,
      "هيم": 2019,
      "كحل": 2020,
      "تجمع": 2021,
      "خدم": 2022,
      "يخرج": 2023,
      "الشخص": 2024,
      "حطو": 2025,
      "سوق": 2026,
      "نط": 2027,
      "جين": 2028,
      "ريح": 2029,
      "كرشها": 2030,
      "عم": 2031,
      "فد": 2032,
      "الحق": 2033,
      "ترجع": 2034,
      "عمري": 2035,
      "فم": 2036,
      "رين": 2037,
      "كذ": 2038,
      "طاح": 2039,
      "بض": 2040,
      "يعقوب": 2041,
      "تاي": 2042,
      "صالون": 2043,
      "سمية": 2044,
      "بني": 2045,
      "فيهاا": 2046,
      "باين": 2047,
      "بم": 2048,
      "ذه": 2049,
      "ولاد": 2050,
      "للح": 2051,
      "خدات": 2052,
      "تهد": 2053,
      "وهبط": 2054,
      "خارجة": 2055,
      "حتك": 2056,
      "مرحبا": 2057,
      "المرا": 2058,
      "نزار": 2059,
      "كيجري": 2060,
      "بيلة": 2061,
      "باي": 2062,
      "اتنا": 2063,
      "فلة": 2064,
      "الان": 2065,
      "عمرو": 2066,
      "بالز": 2067,
      "عليكم": 2068,
      "نوص": 2069,
      "نكون": 2070,
      "حاس": 2071,
      "سمحي": 2072,
      "حيث": 2073,
      "بإ": 2074,
      "ريمان": 2075,
      "صلا": 2076,
      "غمز": 2077,
      "صبح": 2078,
      "ومع": 2079,
      "رؤيا": 2080,
      "مط": 2081,
      "ايدو": 2082,
      "تبكي": 2083,
      "ميساء": 2084,
      "ناء": 2085,
      "هزو": 2086,
      "طان": 2087,
      "مف": 2088,
      "وزينة": 2089,
      "خليها": 2090,
      "رفي": 2091,
      "صاح": 2092,
      "هااد": 2093,
      "عيد": 2094,
      "اااات": 2095,
      "الصباح": 2096,
      "ومت": 2097,
      "بالي": 2098,
      "كلام": 2099,
      "الموض": 2100,
      "بسمة": 2101,
      "تكل": 2102,
      "الارض": 2103,
      "جميلة": 2104,
      "كتف": 2105,
      "اكيد": 2106,
      "عادل": 2107,
      "احبيبة": 2108,
      "تيق": 2109,
      "ساس": 2110,
      "مرات": 2111,
      "دوا": 2112,
      "كيضرب": 2113,
      "تحرك": 2114,
      "الالة": 2115,
      "غادة": 2116,
      "غراب": 2117,
      "تقا": 2118,
      "لاي": 2119,
      "الطا": 2120,
      "بعي": 2121,
      "عذ": 2122,
      "شعل": 2123,
      "كيط": 2124,
      "وراه": 2125,
      "فرق": 2126,
      "بلاصتو": 2127,
      "ندى": 2128,
      "حبيبتي": 2129,
      "باقا": 2130,
      "مشكل": 2131,
      "حمق": 2132,
      "منى": 2133,
      "صدق": 2134,
      "ملية": 2135,
      "سلام": 2136,
      "فرحانة": 2137,
      "زيف": 2138,
      "اهى": 2139,
      "خلاتو": 2140,
      "كير": 2141,
      "ااد": 2142,
      "ئام": 2143,
      "كملات": 2144,
      "أش": 2145,
      "حات": 2146,
      "حتو": 2147,
      "هدى": 2148,
      "نوح": 2149,
      "جردة": 2150,
      "سرين": 2151,
      "مرك": 2152,
      "رجعت": 2153,
      "متا": 2154,
      "صاحب": 2155,
      "أنه": 2156,
      "ورة": 2157,
      "بعدما": 2158,
      "جمعات": 2159,
      "تقدر": 2160,
      "يامنة": 2161,
      "واااا": 2162,
      "حيل": 2163,
      "حلو": 2164,
      "كيبان": 2165,
      "لية": 2166,
      "بلاتي": 2167,
      "عمرها": 2168,
      "حوا": 2169,
      "شير": 2170,
      "سمر": 2171,
      "روز": 2172,
      "بث": 2173,
      "معرفتش": 2174,
      "لواحد": 2175,
      "راش": 2176,
      "تيه": 2177,
      "طيك": 2178,
      "فييه": 2179,
      "عنيها": 2180,
      "جيهت": 2181,
      "حدو": 2182,
      "وات": 2183,
      "كاينة": 2184,
      "بوحدها": 2185,
      "جواد": 2186,
      "بقاا": 2187,
      "نضال": 2188,
      "نى": 2189,
      "نتوما": 2190,
      "الطبلة": 2191,
      "فراسها": 2192,
      "عيون": 2193,
      "خفيفة": 2194,
      "صاحبي": 2195,
      "حفي": 2196,
      "عكس": 2197,
      "ضروري": 2198,
      "دل": 2199,
      "حطها": 2200,
      "أما": 2201,
      "ووم": 2202,
      "ضارت": 2203,
      "وايج": 2204,
      "شوفة": 2205,
      "خايفة": 2206,
      "تان": 2207,
      "اميرة": 2208,
      "عندنا": 2209,
      "لقي": 2210,
      "نرجع": 2211,
      "نوو": 2212,
      ",,,": 2213,
      "وهز": 2214,
      "تليفون": 2215,
      "خنزر": 2216,
      "فعل": 2217,
      "نيها": 2218,
      "اوكي": 2219,
      "سكينة": 2220,
      "كلهم": 2221,
      "هشام": 2222,
      "ظه": 2223,
      "ايدها": 2224,
      "متأ": 2225,
      "الساعة": 2226,
      "هءهء": 2227,
      "رجاء": 2228,
      "خصرها": 2229,
      "طويلة": 2230,
      "سيا": 2231,
      "لبيتها": 2232,
      "مازال": 2233,
      "زياد": 2234,
      "نااا": 2235,
      "جلال": 2236,
      "لص": 2237,
      "هازة": 2238,
      "ديش": 2239,
      "ناصر": 2240,
      "فدار": 2241,
      "ياربي": 2242,
      "جنا": 2243,
      "مجد": 2244,
      "وئام": 2245,
      "شهر": 2246,
      "لشي": 2247,
      "كنا": 2248,
      "هاااا": 2249,
      "لالة": 2250,
      "رحمة": 2251,
      "ختا": 2252,
      "مخرج": 2253,
      "ورجعات": 2254,
      "الاس": 2255,
      "فراس": 2256,
      "براسو": 2257,
      "سوة": 2258,
      "وأ": 2259,
      "عرفت": 2260,
      "غالي": 2261,
      "براء": 2262,
      "بلاما": 2263,
      "نخرج": 2264,
      "عرفو": 2265,
      "ونتا": 2266,
      "زيت": 2267,
      "فواحد": 2268,
      "كوثر": 2269,
      ".......": 2270,
      "طلعت": 2271,
      "بزوج": 2272,
      "كث": 2273,
      "دون": 2274,
      "سيو": 2275,
      "بسم": 2276,
      "هى": 2277,
      "سنين": 2278,
      "معصب": 2279,
      "بيديه": 2280,
      "الدنيا": 2281,
      "فاقت": 2282,
      "بزربة": 2283,
      "البارح": 2284,
      "رااا": 2285,
      "سعد": 2286,
      "حين": 2287,
      "وجا": 2288,
      "لون": 2289,
      "وبقات": 2290,
      "ايلا": 2291,
      "لوج": 2292,
      "القا": 2293,
      "للا": 2294,
      "بنفس": 2295,
      "ووج": 2296,
      "ففف": 2297,
      "خافي": 2298,
      "بحالا": 2299,
      "ستي": 2300,
      "صرف": 2301,
      "بغضب": 2302,
      "أنها": 2303,
      "اشراق": 2304,
      "بقة": 2305,
      "الفوق": 2306,
      "حتي": 2307,
      "حنات": 2308,
      "لياا": 2309,
      "حاسة": 2310,
      "حاط": 2311,
      "دورات": 2312,
      "مرت": 2313,
      "حمي": 2314,
      "وجل": 2315,
      "ولاكن": 2316,
      "فحي": 2317,
      "فالأ": 2318,
      "كملو": 2319,
      "فديك": 2320,
      "لاء": 2321,
      "غلط": 2322,
      "ناري": 2323,
      "ئل": 2324,
      "وشاف": 2325,
      "بيناتهم": 2326,
      "لان": 2327,
      "عج": 2328,
      "جلسو": 2329,
      "بغيتك": 2330,
      "فاج": 2331,
      "ديمنة": 2332,
      "مجمو": 2333,
      "فتي": 2334,
      "دراري": 2335,
      "صفاء": 2336,
      "طاا": 2337,
      "محا": 2338,
      "بنتها": 2339,
      "رود": 2340,
      "الريكس": 2341,
      "دخلي": 2342,
      "والم": 2343,
      "غرفة": 2344,
      "بالك": 2345,
      "كينة": 2346,
      "هبة": 2347,
      "شورط": 2348,
      "حليمة": 2349,
      "عزيزة": 2350,
      "تهز": 2351,
      "زواج": 2352,
      "مشيو": 2353,
      "نشوفو": 2354,
      "سمها": 2355,
      "لهنا": 2356,
      "سكتي": 2357,
      "لباس": 2358,
      "ررر": 2359,
      "خصوصا": 2360,
      "يرة": 2361,
      "طرا": 2362,
      "ليكم": 2363,
      "كتسمع": 2364,
      "واليدة": 2365,
      "شنوو": 2366,
      "هضري": 2367,
      "بغاش": 2368,
      "نسرين": 2369,
      "خلينا": 2370,
      "أوس": 2371,
      "قط": 2372,
      "شويا": 2373,
      "از": 2374,
      "سيد": 2375,
      "سروال": 2376,
      "خاطر": 2377,
      "بالزربة": 2378,
      "خولة": 2379,
      "جنبها": 2380,
      "انس": 2381,
      "يقول": 2382,
      "ايام": 2383,
      "غار": 2384,
      "ادم": 2385,
      "نهضر": 2386,
      "زد": 2387,
      "ييد": 2388,
      "المس": 2389,
      "خذ": 2390,
      "ناي": 2391,
      "كوزينة": 2392,
      "وتا": 2393,
      "فيلا": 2394,
      "لقى": 2395,
      "محتا": 2396,
      "لاخر": 2397,
      "سمعت": 2398,
      "خافت": 2399,
      "كدير": 2400,
      "متو": 2401,
      "اكثر": 2402,
      "عمرك": 2403,
      "ووس": 2404,
      "حاملة": 2405,
      "بغاتش": 2406,
      "الغرفة": 2407,
      "مدات": 2408,
      "جيبو": 2409,
      "صوفيا": 2410,
      "براهيم": 2411,
      "كنشوف": 2412,
      "العائلة": 2413,
      "كيهضر": 2414,
      "مخلي": 2415,
      "فالارض": 2416,
      "فوطة": 2417,
      "مغاديش": 2418,
      "بخطو": 2419,
      "موراها": 2420,
      "بيديها": 2421,
      "ملاك": 2422,
      "كااا": 2423,
      "خاف": 2424,
      "جاية": 2425,
      "وسي": 2426,
      "راري": 2427,
      "وقفو": 2428,
      "بعدات": 2429,
      "اوك": 2430,
      "يتبع": 2431,
      "نعاس": 2432,
      "ماكان": 2433,
      "فاا": 2434,
      "كتس": 2435,
      "بالض": 2436,
      "ونطق": 2437,
      "هيب": 2438,
      "هناا": 2439,
      "رتا": 2440,
      "ايديه": 2441,
      "عطيني": 2442,
      "داها": 2443,
      "عافاك": 2444,
      "ووون": 2445,
      "معارف": 2446,
      "حاال": 2447,
      "كتفكر": 2448,
      "سدات": 2449,
      "حلم": 2450,
      "شافو": 2451,
      "فداك": 2452,
      "رجلي": 2453,
      "شفايفو": 2454,
      "امير": 2455,
      "عااا": 2456,
      "كب": 2457,
      "شمس": 2458,
      "طبلة": 2459,
      "الموضوع": 2460,
      "هداك": 2461,
      "علاء": 2462,
      "توحشتك": 2463,
      "خلعة": 2464,
      "حرق": 2465,
      "مممم": 2466,
      "يسر": 2467,
      "حبة": 2468,
      "بالجهد": 2469,
      "كالس": 2470,
      "هادو": 2471,
      "ينش": 2472,
      "طور": 2473,
      "ولها": 2474,
      "فاتي": 2475,
      "ضربات": 2476,
      "الليل": 2477,
      "بالله": 2478,
      "هابط": 2479,
      "إلا": 2480,
      "داع": 2481,
      "قريب": 2482,
      "بتاس": 2483,
      "تنفس": 2484,
      "الماس": 2485,
      "وقلب": 2486,
      "فرحان": 2487,
      "...(": 2488,
      "نطقات": 2489,
      "ووش": 2490,
      "بحر": 2491,
      "خليك": 2492,
      "الكرسي": 2493,
      "كتن": 2494,
      "رجم": 2495,
      "ييها": 2496,
      "ورد": 2497,
      "يدخل": 2498,
      "ذكر": 2499,
      "نقدر": 2500,
      "كتع": 2501,
      "غس": 2502,
      "غيير": 2503,
      "طال": 2504,
      "ربية": 2505,
      "غزل": 2506,
      "لبنات": 2507,
      "كوني": 2508,
      "عدنان": 2509,
      "مزوج": 2510,
      "وتو": 2511,
      "دف": 2512,
      "جع": 2513,
      "ووك": 2514,
      "ينو": 2515,
      "عليهاا": 2516,
      "حساب": 2517,
      "بااش": 2518,
      "يقدر": 2519,
      "أرسلان": 2520,
      "سس": 2521,
      "رافا": 2522,
      "وتي": 2523,
      "شدو": 2524,
      "غوات": 2525,
      "خاصة": 2526,
      "كتقلب": 2527,
      "ماعرفتش": 2528,
      "..(": 2529,
      "باستغراب": 2530,
      "لول": 2531,
      "واليد": 2532,
      "وعلاش": 2533,
      "كيتسنا": 2534,
      "معنى": 2535,
      "وقفت": 2536,
      "ضن": 2537,
      "ضرة": 2538,
      "فالس": 2539,
      "ووت": 2540,
      "كتهضر": 2541,
      "خدو": 2542,
      "قدامي": 2543,
      "بتك": 2544,
      "وشافت": 2545,
      "تبسمات": 2546,
      "ناش": 2547,
      "الاول": 2548,
      "نديرو": 2549,
      "ديالهم": 2550,
      "انك": 2551,
      "وهم": 2552,
      "هانا": 2553,
      "سند": 2554,
      "عمران": 2555,
      "سع": 2556,
      "وسا": 2557,
      "قب": 2558,
      "وكان": 2559,
      "بنظ": 2560,
      "تصرف": 2561,
      "........": 2562,
      "ناعس": 2563,
      "لوى": 2564,
      "نسبة": 2565,
      "يرجع": 2566,
      "تحس": 2567,
      "لامة": 2568,
      "خليه": 2569,
      "سوا": 2570,
      "زاين": 2571,
      "يتك": 2572,
      "انيس": 2573,
      "سمعو": 2574,
      "ااتو": 2575,
      "ااام": 2576,
      "خلص": 2577,
      "خدامة": 2578,
      "بقيتش": 2579,
      "نجمة": 2580,
      "كيقول": 2581,
      "وقرب": 2582,
      "ييش": 2583,
      "هش": 2584,
      "وناضت": 2585,
      "رجس": 2586,
      "ااال": 2587,
      "العرس": 2588,
      "كتبغي": 2589,
      "يط": 2590,
      "بوحدي": 2591,
      "اسيدي": 2592,
      "البر": 2593,
      "حالتها": 2594,
      "ران": 2595,
      "لمس": 2596,
      "عقد": 2597,
      "يز": 2598,
      "بشر": 2599,
      "خف": 2600,
      "وراها": 2601,
      "نيار": 2602,
      "غدي": 2603,
      "تلفت": 2604,
      "فالدار": 2605,
      "هذ": 2606,
      "مالكي": 2607,
      "هيبة": 2608,
      "ظهر": 2609,
      "أسد": 2610,
      "باد": 2611,
      "لبنت": 2612,
      "نوع": 2613,
      "الضحكة": 2614,
      "قبلة": 2615,
      "تعا": 2616,
      "ثا": 2617,
      "لال": 2618,
      "فعلا": 2619,
      "كوتر": 2620,
      "الحيط": 2621,
      "دنيا": 2622,
      "ييير": 2623,
      "ردد": 2624,
      "كتور": 2625,
      "صخر": 2626,
      "مينة": 2627,
      "خوك": 2628,
      "ديرها": 2629,
      "ياء": 2630,
      "بتو": 2631,
      "خربق": 2632,
      "نبيل": 2633,
      "ريحة": 2634,
      "ناز": 2635,
      "وحد": 2636,
      "حوايجو": 2637,
      "جنة": 2638,
      "سعاد": 2639,
      "ودخلات": 2640,
      "][": 2641,
      "حنكها": 2642,
      "؟؟؟؟": 2643,
      "جهاد": 2644,
      "ياكما": 2645,
      "نزلو": 2646,
      "وجهي": 2647,
      "يااا": 2648,
      "فيديه": 2649,
      "تكم": 2650,
      "جرد": 2651,
      "فيدي": 2652,
      "لبارح": 2653,
      "ئيل": 2654,
      "كيبغي": 2655,
      "طرطق": 2656,
      "القلب": 2657,
      "لقة": 2658,
      "ساكتة": 2659,
      "وناض": 2660,
      "كتحاول": 2661,
      "جايا": 2662,
      "ميل": 2663,
      "وبقا": 2664,
      "الزا": 2665,
      "مكانش": 2666,
      "عوين": 2667,
      "الليلة": 2668,
      "البال": 2669,
      "إلى": 2670,
      "جان": 2671,
      "يج": 2672,
      "بلع": 2673,
      "بكا": 2674,
      "الخط": 2675,
      "كنزة": 2676,
      "بصدمة": 2677,
      "ولدها": 2678,
      "بقاتش": 2679,
      "تعل": 2680,
      "غادية": 2681,
      "ااء": 2682,
      "لحم": 2683,
      "غمضات": 2684,
      "ناق": 2685,
      "يب": 2686,
      "دوزو": 2687,
      "الام": 2688,
      "ميمكنش": 2689,
      "تج": 2690,
      "مالها": 2691,
      "فاق": 2692,
      "صوتها": 2693,
      "وشنو": 2694,
      "نيك": 2695,
      "بنتك": 2696,
      "عز": 2697,
      "فز": 2698,
      "لاق": 2699,
      "طموبيل": 2700,
      "ودار": 2701,
      "طرف": 2702,
      "يست": 2703,
      "طاكسي": 2704,
      "تفر": 2705,
      "درو": 2706,
      "خشا": 2707,
      "قمر": 2708,
      "مالي": 2709,
      "ميز": 2710,
      "علييه": 2711,
      "حسيت": 2712,
      "خات": 2713,
      "ستا": 2714,
      "عبير": 2715,
      "عهد": 2716,
      "ضحكت": 2717,
      "ماااا": 2718,
      "فظ": 2719,
      "لمك": 2720,
      "مدام": 2721,
      "خفيف": 2722,
      "ونز": 2723,
      "العين": 2724,
      "وجهك": 2725,
      "طيل": 2726,
      "وكن": 2727,
      "لاكن": 2728,
      "قوت": 2729,
      "سماح": 2730,
      "عيسى": 2731,
      "عامر": 2732,
      "مزياان": 2733,
      "تهضر": 2734,
      "ليث": 2735,
      "داار": 2736,
      "ختك": 2737,
      "الصمت": 2738,
      "فاروق": 2739,
      "نرجس": 2740,
      "طويل": 2741,
      "طبي": 2742,
      "بحالك": 2743,
      "بنادم": 2744,
      "احسن": 2745,
      "ريس": 2746,
      "ولدك": 2747,
      "معند": 2748,
      "طلقات": 2749,
      "موراه": 2750,
      "باااا": 2751,
      "قصي": 2752,
      "للق": 2753,
      "لييه": 2754,
      "كولو": 2755,
      "بطريقة": 2756,
      "تقولي": 2757,
      "عينها": 2758,
      "هان": 2759,
      "بالنسبة": 2760,
      "بجدية": 2761,
      "شكر": 2762,
      "زهور": 2763,
      "ميت": 2764,
      "شهق": 2765,
      "سالا": 2766,
      "ليي": 2767,
      "وطلع": 2768,
      "اسي": 2769,
      "شق": 2770,
      "ووووو": 2771,
      "سالي": 2772,
      "وعلى": 2773,
      "داتها": 2774,
      "توا": 2775,
      "حاطة": 2776,
      "طيها": 2777,
      "ماعندي": 2778,
      "مصدومة": 2779,
      "بعا": 2780,
      "يييه": 2781,
      "حاجبو": 2782,
      "الضو": 2783,
      "كانتش": 2784,
      "وعد": 2785,
      "لبسي": 2786,
      "رجعي": 2787,
      "تيي": 2788,
      "لييك": 2789,
      "بلو": 2790,
      "مبر": 2791,
      "لدرجة": 2792,
      "وااش": 2793,
      "***": 2794,
      "الشا": 2795,
      "جديدة": 2796,
      "غيث": 2797,
      "رزان": 2798,
      "عععع": 2799,
      "هج": 2800,
      "ئق": 2801,
      "فراسك": 2802,
      "؛؛": 2803,
      "فنة": 2804,
      "مؤ": 2805,
      "كرة": 2806,
      "كيشوفو": 2807,
      "كلس": 2808,
      "قطعات": 2809,
      "يو": 2810,
      "ااو": 2811,
      "منصف": 2812,
      "ربع": 2813,
      "لج": 2814,
      "حلا": 2815,
      "وجات": 2816,
      "اسراء": 2817,
      "شوفو": 2818,
      "مخنزر": 2819,
      "طفى": 2820,
      "جرات": 2821,
      "شدي": 2822,
      "ولية": 2823,
      "ليكة": 2824,
      "زر": 2825,
      "صار": 2826,
      "ايديها": 2827,
      "ووع": 2828,
      "حها": 2829,
      "عرفها": 2830,
      "آه": 2831,
      "توقف": 2832,
      "جابر": 2833,
      "رجف": 2834,
      "حكم": 2835,
      "سيفط": 2836,
      "يم": 2837,
      ")•": 2838,
      "للع": 2839,
      "غنمشي": 2840,
      "بيد": 2841,
      "ااااه": 2842,
      "معاا": 2843,
      "خسر": 2844,
      "مستحيل": 2845,
      "هبطو": 2846,
      "ةة": 2847,
      "خنز": 2848,
      "اث": 2849,
      "داوود": 2850,
      "عينيك": 2851,
      "صحة": 2852,
      "اماما": 2853,
      "فبلاصتها": 2854,
      "كما": 2855,
      "لمو": 2856,
      "ليس": 2857,
      "بيتها": 2858,
      "باغة": 2859,
      "بسباب": 2860,
      "يديك": 2861,
      "جهينة": 2862,
      "تصا": 2863,
      "شركة": 2864,
      "وليت": 2865,
      "ايق": 2866,
      "هاك": 2867,
      "رااه": 2868,
      "تحر": 2869,
      "مقدر": 2870,
      "يااك": 2871,
      "ردت": 2872,
      "تحط": 2873,
      "انااا": 2874,
      "كرش": 2875,
      "ههههههه": 2876,
      "بور": 2877,
      "تعط": 2878,
      "ونو": 2879,
      "زفر": 2880,
      "بنبرة": 2881,
      "بوسة": 2882,
      "رياض": 2883,
      "الخدا": 2884,
      "يييت": 2885,
      "لهم": 2886,
      "اححح": 2887,
      "كتقول": 2888,
      "مرضة": 2889,
      "الرجال": 2890,
      "خدها": 2891,
      "بالها": 2892,
      "تست": 2893,
      "بيخير": 2894,
      "المر": 2895,
      "فلا": 2896,
      "سكتات": 2897,
      "خدام": 2898,
      "فالباب": 2899,
      "رتاح": 2900,
      "هيه": 2901,
      "كاان": 2902,
      "جالسين": 2903,
      "معص": 2904,
      "..«": 2905,
      "ضهرها": 2906,
      "ودي": 2907,
      "فعينيه": 2908,
      "زرب": 2909,
      "عطاها": 2910,
      "فه": 2911,
      "دابة": 2912,
      "قصد": 2913,
      "كتغوت": 2914,
      "همش": 2915,
      "أول": 2916,
      "نوري": 2917,
      "رائ": 2918,
      "تفض": 2919,
      "بخطوات": 2920,
      "نزهة": 2921,
      "كنحس": 2922,
      "وجع": 2923,
      "حنى": 2924,
      "بينما": 2925,
      "حول": 2926,
      "تفا": 2927,
      "لحضة": 2928,
      "سبق": 2929,
      "لحي": 2930,
      "ودابا": 2931,
      "نخلي": 2932,
      "كيفما": 2933,
      "رئ": 2934,
      "حجبانو": 2935,
      "قى": 2936,
      "رافائيل": 2937,
      "فمك": 2938,
      "للبيت": 2939,
      "وبين": 2940,
      "أسيل": 2941,
      "كتافها": 2942,
      "مسكينة": 2943,
      "توو": 2944,
      "فيد": 2945,
      "لاباس": 2946,
      "ردة": 2947,
      "طاهرة": 2948,
      "صاافي": 2949,
      "اللحظة": 2950,
      "ااااك": 2951,
      "كتبان": 2952,
      "طيب": 2953,
      "تنوض": 2954,
      "تقطع": 2955,
      "فيين": 2956,
      "حاضي": 2957,
      "موا": 2958,
      "بقيتي": 2959,
      "فرصة": 2960,
      "سناء": 2961,
      "كامي": 2962,
      "فيدو": 2963,
      "بخوف": 2964,
      "صون": 2965,
      "فكل": 2966,
      "قلة": 2967,
      "وذ": 2968,
      "سندس": 2969,
      "علات": 2970,
      "الولد": 2971,
      "يات": 2972,
      "جبهتها": 2973,
      "هاكاك": 2974,
      "السيد": 2975,
      "مكم": 2976,
      "وهزات": 2977,
      "صاف": 2978,
      "وصلت": 2979,
      "بكري": 2980,
      "ييل": 2981,
      "الجو": 2982,
      "تكوني": 2983,
      "شفتك": 2984,
      "مقابل": 2985,
      "نفسها": 2986,
      "كحلة": 2987,
      "ديق": 2988,
      "ماغ": 2989,
      "حكي": 2990,
      "جينا": 2991,
      "ومش": 2992,
      "اها": 2993,
      "خرجي": 2994,
      "صوتو": 2995,
      "ميمة": 2996,
      "كتفو": 2997,
      "خاصها": 2998,
      "غايكون": 2999,
      "لاااا": 3000,
      "تبدل": 3001,
      "شهي": 3002,
      "مسحات": 3003,
      "خافيش": 3004,
      "ووه": 3005,
      "انتي": 3006,
      "عرفات": 3007,
      "ضربو": 3008,
      "يسرى": 3009,
      "ركا": 3010,
      "بعينيها": 3011,
      "وعينيها": 3012,
      "كيحاول": 3013,
      "القصر": 3014,
      "خلاتها": 3015,
      "هك": 3016,
      "ورقة": 3017,
      "وهرة": 3018,
      "فوت": 3019,
      "داري": 3020,
      "تبغي": 3021,
      "ولك": 3022,
      "توش": 3023,
      "مابغيتش": 3024,
      "عنقاتو": 3025,
      "هاي": 3026,
      "كيدير": 3027,
      "شاو": 3028,
      "منقدرش": 3029,
      "خرة": 3030,
      "يخليك": 3031,
      "هزت": 3032,
      "--": 3033,
      "ااج": 3034,
      "تولي": 3035,
      "بعينيه": 3036,
      "تفرج": 3037,
      "تكا": 3038,
      "بخير": 3039,
      "المش": 3040,
      "جوزيف": 3041,
      "شفتها": 3042,
      "مفهم": 3043,
      "صحا": 3044,
      "مجموعين": 3045,
      "تبارك": 3046,
      "نعي": 3047,
      "مرتا": 3048,
      "منية": 3049,
      "غزلان": 3050,
      "خصص": 3051,
      "عايش": 3052,
      "كنبغيك": 3053,
      "ثار": 3054,
      "ااي": 3055,
      "اشمن": 3056,
      "ضربها": 3057,
      "صهيب": 3058,
      "هناء": 3059,
      "رار": 3060,
      "جميع": 3061,
      "ودارت": 3062,
      "دايرين": 3063,
      "تعصب": 3064,
      "شتي": 3065,
      "مللي": 3066,
      "عيا": 3067,
      "جابت": 3068,
      "صلي": 3069,
      "لاب": 3070,
      "وليتي": 3071,
      "الفلوس": 3072,
      "نزلت": 3073,
      "أمين": 3074,
      "وجهه": 3075,
      "حض": 3076,
      "ومي": 3077,
      "لاص": 3078,
      "تد": 3079,
      "تالا": 3080,
      "داخلة": 3081,
      "حسام": 3082,
      "بعو": 3083,
      "براسي": 3084,
      "جلست": 3085,
      "ثاني": 3086,
      "نتزوج": 3087,
      "ياب": 3088,
      "الدراري": 3089,
      "رفض": 3090,
      "ضحكو": 3091,
      "وشي": 3092,
      "تيل": 3093,
      "علييك": 3094,
      "بانو": 3095,
      "مزير": 3096,
      "ااب": 3097,
      "لقاه": 3098,
      "حواج": 3099,
      "عاط": 3100,
      "غسل": 3101,
      "حشم": 3102,
      "يله": 3103,
      "وعة": 3104,
      "راجلك": 3105,
      "يام": 3106,
      "غبر": 3107,
      "علياا": 3108,
      "فطور": 3109,
      "كدور": 3110,
      "روت": 3111,
      "الوا": 3112,
      "داباا": 3113,
      "كيس": 3114,
      "تمت": 3115,
      "احمد": 3116,
      "مالق": 3117,
      "عرض": 3118,
      "توصل": 3119,
      "زم": 3120,
      "الواليدة": 3121,
      "الحوايج": 3122,
      "النعاس": 3123,
      "ريان": 3124,
      "بعضياتهم": 3125,
      "بهاء": 3126,
      "بدي": 3127,
      "العادة": 3128,
      "رغم": 3129,
      "شووف": 3130,
      "حشو": 3131,
      "آدم": 3132,
      "دقة": 3133,
      "يرضي": 3134,
      "ملك": 3135,
      "فاس": 3136,
      "ششش": 3137,
      "حلف": 3138,
      "النفس": 3139,
      "حنين": 3140,
      "اميمة": 3141,
      "اشرف": 3142,
      "ندخل": 3143,
      "يبة": 3144,
      "راجع": 3145,
      "حااا": 3146,
      "ختها": 3147,
      "الحياة": 3148,
      "المست": 3149,
      "كتلعب": 3150,
      "قاو": 3151,
      "مروان": 3152,
      "00": 3153,
      "سط": 3154,
      "كلم": 3155,
      "واعد": 3156,
      "عمرني": 3157,
      "فينا": 3158,
      "روف": 3159,
      "بون": 3160,
      "معنق": 3161,
      "ااااش": 3162,
      "تاهو": 3163,
      "الموت": 3164,
      "وغير": 3165,
      "والا": 3166,
      "ربو": 3167,
      "تقري": 3168,
      "فطر": 3169,
      "قوة": 3170,
      "حمان": 3171,
      "خوها": 3172,
      "مرتي": 3173,
      "فران": 3174,
      "دروج": 3175,
      "غز": 3176,
      "نين": 3177,
      "حواجبو": 3178,
      "كتفها": 3179,
      "يعرف": 3180,
      "ثم": 3181,
      "مافهم": 3182,
      "كلامو": 3183,
      "الناموسية": 3184,
      "راجلها": 3185,
      "خوي": 3186,
      "معو": 3187,
      "صلاح": 3188,
      "تنعس": 3189,
      "يخلي": 3190,
      "الراجل": 3191,
      "عرفي": 3192,
      "خاطرها": 3193,
      "ينيش": 3194,
      "دمو": 3195,
      "مرتو": 3196,
      "صاك": 3197,
      "حواجبها": 3198,
      "كيحس": 3199,
      "ضربة": 3200,
      "ماماك": 3201,
      "ولدو": 3202,
      "دااا": 3203,
      "غيكون": 3204,
      "كيقلب": 3205,
      "خلاه": 3206,
      "سميرة": 3207,
      "خبط": 3208,
      "وشد": 3209,
      "قين": 3210,
      "بعها": 3211,
      "البحر": 3212,
      "قادر": 3213,
      "رتان": 3214,
      "مريضة": 3215,
      "مصطفى": 3216,
      "بشوي": 3217,
      "عدة": 3218,
      "محل": 3219,
      "مليكة": 3220,
      "تتشوف": 3221,
      "خاصو": 3222,
      "درة": 3223,
      "فراسو": 3224,
      "دورة": 3225,
      "اتوش": 3226,
      "مباش": 3227,
      "صراحة": 3228,
      "لكا": 3229,
      "تعطل": 3230,
      "سنانو": 3231,
      "تصد": 3232,
      "حقي": 3233,
      "يهضر": 3234,
      "فففف": 3235,
      "تماك": 3236,
      "تنا": 3237,
      "اية": 3238,
      "خارجين": 3239,
      "امت": 3240,
      "غادا": 3241,
      "جمعو": 3242,
      "البلا": 3243,
      "إن": 3244,
      "جسور": 3245,
      "طيه": 3246,
      "سلمات": 3247,
      "ولان": 3248,
      "المشا": 3249,
      "خبار": 3250,
      "روسة": 3251,
      "سمات": 3252,
      "لكوزينة": 3253,
      "جرو": 3254,
      "تلو": 3255,
      "السلام": 3256,
      "خش": 3257,
      "نخليك": 3258,
      "فود": 3259,
      "المد": 3260,
      "بيجا": 3261,
      "اخويا": 3262,
      "بوحدو": 3263,
      "~~~~": 3264,
      "تسا": 3265,
      "الملك": 3266,
      "صونا": 3267,
      "فلوس": 3268,
      "وهاد": 3269,
      "انور": 3270,
      "بيناتنا": 3271,
      "الرج": 3272,
      "ايه": 3273,
      "وقفة": 3274,
      "جلسي": 3275,
      "الحي": 3276,
      "سهام": 3277,
      "فالق": 3278,
      "ايرتان": 3279,
      "معااه": 3280,
      "وااحد": 3281,
      "الجن": 3282,
      "مورا": 3283,
      "ببرود": 3284,
      "اقبال": 3285,
      "مضة": 3286,
      "كيلعب": 3287,
      "كتق": 3288,
      "عجبك": 3289,
      "هرس": 3290,
      "تدخل": 3291,
      "بالو": 3292,
      "غلي": 3293,
      "فيدها": 3294,
      "ابتسا": 3295,
      "وجدان": 3296,
      "عيل": 3297,
      "اريج": 3298,
      "عينيهاا": 3299,
      "واقفين": 3300,
      "مجي": 3301,
      "ذهب": 3302,
      "نجيب": 3303,
      "اين": 3304,
      "عايشة": 3305,
      "ماقدر": 3306,
      "فعنقها": 3307,
      "تكات": 3308,
      "شااف": 3309,
      "ارو": 3310,
      "كلامها": 3311,
      "بيطار": 3312,
      "ابراهيم": 3313,
      "متكي": 3314,
      "ضيع": 3315,
      "بواحد": 3316,
      "مشيتي": 3317,
      "ساجد": 3318,
      "بيني": 3319,
      "ماماها": 3320,
      "زمر": 3321,
      "ونزل": 3322,
      "كيفكر": 3323,
      "بحالي": 3324,
      "لمن": 3325,
      "الأرض": 3326,
      "المكان": 3327,
      "داتو": 3328,
      "معها": 3329,
      "بيدو": 3330,
      "فكرة": 3331,
      "ابتاسم": 3332,
      "شم": 3333,
      "كوو": 3334,
      "باط": 3335,
      "ركبات": 3336,
      "فرج": 3337,
      "عتا": 3338,
      "نشوفك": 3339,
      "غيتة": 3340,
      "تالاسين": 3341,
      "ديد": 3342,
      "صبري": 3343,
      "رني": 3344,
      "للب": 3345,
      "لی": 3346,
      "دوزات": 3347,
      "كيتس": 3348,
      "وعينيه": 3349,
      "خن": 3350,
      "اخالتي": 3351,
      "طالعة": 3352,
      "الوضع": 3353,
      "قابل": 3354,
      "الطبيبة": 3355,
      "وحل": 3356,
      "تري": 3357,
      "علة": 3358,
      "الشو": 3359,
      "نبقا": 3360,
      "فوو": 3361,
      "وهوما": 3362,
      "صحي": 3363,
      "زيرات": 3364,
      "اوس": 3365,
      "شعور": 3366,
      "الطريقة": 3367,
      "ااااااا": 3368,
      "ردين": 3369,
      "أخرى": 3370,
      "هند": 3371,
      "قق": 3372,
      "ولبس": 3373,
      "بدلات": 3374,
      "الدرجة": 3375,
      "مغن": 3376,
      "الحمام": 3377,
      "لقاتها": 3378,
      "صغي": 3379,
      "إس": 3380,
      "الحم": 3381,
      "بنص": 3382,
      "سري": 3383,
      "هزاء": 3384,
      "ماكاين": 3385,
      "رم": 3386,
      "كدة": 3387,
      "طلعها": 3388,
      "مباشرة": 3389,
      "السرير": 3390,
      "جيو": 3391,
      "طلعي": 3392,
      "عالي": 3393,
      "الراس": 3394,
      "براا": 3395,
      "قلبات": 3396,
      "ماعارف": 3397,
      "القهوة": 3398,
      "بوش": 3399,
      "غوتات": 3400,
      "أني": 3401,
      "..!!": 3402,
      "شوو": 3403,
      "علااش": 3404,
      "الماء": 3405,
      "فتحات": 3406,
      "ندي": 3407,
      "طريقة": 3408,
      "بسلامة": 3409,
      "قاا": 3410,
      "ركبو": 3411,
      "ضري": 3412,
      "باركة": 3413,
      "تبقا": 3414,
      "خطي": 3415,
      "السم": 3416,
      "دياب": 3417,
      "بديك": 3418,
      "يرحم": 3419,
      "طبيبة": 3420,
      "قفز": 3421,
      "اصاحبي": 3422,
      "بالا": 3423,
      "تهاش": 3424,
      "عيات": 3425,
      "سمعتي": 3426,
      "اااان": 3427,
      "تكمل": 3428,
      "رفع": 3429,
      "منصور": 3430,
      "عاودي": 3431,
      "نيتك": 3432,
      "قسم": 3433,
      "عاودات": 3434,
      "نوا": 3435,
      "خصني": 3436,
      "جابو": 3437,
      "ميجة": 3438,
      "ولاو": 3439,
      "ونت": 3440,
      "حياتها": 3441,
      "نعاود": 3442,
      "جلسة": 3443,
      "رررر": 3444,
      "اتني": 3445,
      "بطي": 3446,
      "هال": 3447,
      "زكري": 3448,
      "ملامحها": 3449,
      "فلو": 3450,
      "صاي": 3451,
      "ئر": 3452,
      "رشي": 3453,
      "ماكي": 3454,
      "بنتو": 3455,
      "صدمة": 3456,
      "بيدي": 3457,
      "المى": 3458,
      "تعرفي": 3459,
      "هاداك": 3460,
      "ببط": 3461,
      "ورك": 3462,
      "الخدامة": 3463,
      "سكر": 3464,
      "الفطور": 3465,
      "تقريبا": 3466,
      "حدايا": 3467,
      "بحزن": 3468,
      "يض": 3469,
      "تشو": 3470,
      "بهمس": 3471,
      "كيدوز": 3472,
      "فشكل": 3473,
      "تعاود": 3474,
      "كرا": 3475,
      "لالا": 3476,
      "ليش": 3477,
      "الدموع": 3478,
      "اف": 3479,
      "ضات": 3480,
      "وتاني": 3481,
      "جنبو": 3482,
      "ديني": 3483,
      "عاش": 3484,
      "بوع": 3485,
      "شار": 3486,
      "ذلك": 3487,
      "ديالنا": 3488,
      "نننن": 3489,
      "الذ": 3490,
      "مسكين": 3491,
      "كيك": 3492,
      "وقة": 3493,
      "شعري": 3494,
      "تفهم": 3495,
      "فالح": 3496,
      "ااااف": 3497,
      "وهما": 3498,
      "باء": 3499,
      "رميساء": 3500,
      "لبيتو": 3501,
      "مايمكنش": 3502,
      "كااع": 3503,
      "حمزة": 3504,
      "ديل": 3505,
      "عييت": 3506,
      "en": 3507,
      "خور": 3508,
      "رااس": 3509,
      "لبلاصة": 3510,
      "فاص": 3511,
      "كتسنا": 3512,
      "مكاينش": 3513,
      "نسمع": 3514,
      "بغيش": 3515,
      "ضاء": 3516,
      "صعيب": 3517,
      "تصدم": 3518,
      "شرف": 3519,
      "ووقف": 3520,
      "باستو": 3521,
      "معامن": 3522,
      "بالضبط": 3523,
      "معااك": 3524,
      "جرح": 3525,
      "نريمان": 3526,
      "حداهم": 3527,
      "بمعنى": 3528,
      "جيهتها": 3529,
      "دازو": 3530,
      "عنداك": 3531,
      "تيليفونها": 3532,
      "تفكرات": 3533,
      "لوقت": 3534,
      "رضى": 3535,
      "قوو": 3536,
      "جرة": 3537,
      "ماكن": 3538,
      "لش": 3539,
      "ظم": 3540,
      "عادة": 3541,
      "شبع": 3542,
      "البلاصة": 3543,
      "بعضهم": 3544,
      "ريو": 3545,
      "دن": 3546,
      "كيا": 3547,
      "وجلس": 3548,
      "خلع": 3549,
      "السيارة": 3550,
      "جولان": 3551,
      "ااق": 3552,
      "دمعة": 3553,
      "خال": 3554,
      "صيفط": 3555,
      "وكاي": 3556,
      "هدرة": 3557,
      "ثو": 3558,
      "مكره": 3559,
      "جاها": 3560,
      "حص": 3561,
      "نازل": 3562,
      "ضحى": 3563,
      "معاي": 3564,
      "بغيني": 3565,
      "ماق": 3566,
      "حتال": 3567,
      "الزواج": 3568,
      "عذراء": 3569,
      "راكي": 3570,
      "حابس": 3571,
      "شفى": 3572,
      "لاحت": 3573,
      "اليد": 3574,
      "بتاسمة": 3575,
      "قلو": 3576,
      "بسي": 3577,
      "للحمام": 3578,
      "كترعد": 3579,
      "دب": 3580,
      "معاكم": 3581,
      "يزيد": 3582,
      "واع": 3583,
      "لاس": 3584,
      "حتاج": 3585,
      "هيلة": 3586,
      "ميمون": 3587,
      "افرا": 3588,
      "فرو": 3589,
      "قبيلة": 3590,
      "بالضحك": 3591,
      "غلب": 3592,
      "ناوي": 3593,
      "اييه": 3594,
      "فضل": 3595,
      "الظ": 3596,
      "بوحدك": 3597,
      "اااس": 3598,
      "شفتو": 3599,
      "ديريكت": 3600,
      "تلفون": 3601,
      "جاتها": 3602,
      "عرس": 3603,
      "بيي": 3604,
      "بحدة": 3605,
      "داخلي": 3606,
      "بيع": 3607,
      "الون": 3608,
      "واالو": 3609,
      "وجدو": 3610,
      "سمحلي": 3611,
      "نقز": 3612,
      "صاكها": 3613,
      "نقطة": 3614,
      "الخا": 3615,
      "خصك": 3616,
      "سحر": 3617,
      "قالك": 3618,
      "الاء": 3619,
      "نيفها": 3620,
      "عنيه": 3621,
      "شهاب": 3622,
      "كيما": 3623,
      "واه": 3624,
      "سيارة": 3625,
      "عنقاتها": 3626,
      "ضها": 3627,
      "نك": 3628,
      "يكمل": 3629,
      "بعين": 3630,
      "نوصير": 3631,
      "غني": 3632,
      "اسود": 3633,
      "تبقى": 3634,
      "نعسات": 3635,
      "عزيز": 3636,
      "فينما": 3637,
      "يييييييي": 3638,
      "ياه": 3639,
      "زعمة": 3640,
      "اسلام": 3641,
      "لمرا": 3642,
      "وجود": 3643,
      "جار": 3644,
      "التيليفون": 3645,
      "خبر": 3646,
      "كتاب": 3647,
      "اااب": 3648,
      "صورة": 3649,
      "كولي": 3650,
      "رش": 3651,
      "أمجاد": 3652,
      "قوية": 3653,
      "لوو": 3654,
      "يسمع": 3655,
      "قالها": 3656,
      "عطاه": 3657,
      "خرين": 3658,
      "سور": 3659,
      "طبع": 3660,
      "غتكون": 3661,
      "ضوع": 3662,
      "ااتها": 3663,
      "الشر": 3664,
      "تاهي": 3665,
      "إيثار": 3666,
      "ساي": 3667,
      "وصلها": 3668,
      "شنووو": 3669,
      "بعدها": 3670,
      "بغاو": 3671,
      "بديت": 3672,
      "رما": 3673,
      "ايات": 3674,
      "نجلاء": 3675,
      "لحال": 3676,
      "ماغاديش": 3677,
      "فوطوي": 3678,
      "فلي": 3679,
      "سالات": 3680,
      "ضت": 3681,
      "بلعات": 3682,
      "البرد": 3683,
      "تبر": 3684,
      "كفاش": 3685,
      "اااد": 3686,
      "سنة": 3687,
      "مب": 3688,
      "##": 3689,
      "سميتها": 3690,
      "وتها": 3691,
      "تخلي": 3692,
      "قلبك": 3693,
      "عضات": 3694,
      "هام": 3695,
      "حشومة": 3696,
      "ساب": 3697,
      "فالبيت": 3698,
      "كرو": 3699,
      "علاقة": 3700,
      "الزن": 3701,
      "ااح": 3702,
      "طلقها": 3703,
      "دراعها": 3704,
      "نبغي": 3705,
      "وكات": 3706,
      "بعيدة": 3707,
      "تلاح": 3708,
      "شفا": 3709,
      "سوط": 3710,
      "مغيث": 3711,
      "ميار": 3712,
      "بسخ": 3713,
      "نجم": 3714,
      "زرق": 3715,
      "الشوفة": 3716,
      "غاتكون": 3717,
      "عمار": 3718,
      "تماا": 3719,
      "المكتب": 3720,
      "عقلها": 3721,
      "مزيانة": 3722,
      "هوو": 3723,
      "الرحمان": 3724,
      "أكثر": 3725,
      "وزاد": 3726,
      "كتمسح": 3727,
      "مالو": 3728,
      "بدو": 3729,
      "عيالات": 3730,
      "مزا": 3731,
      "كتخ": 3732,
      "خطوة": 3733,
      "تزيد": 3734,
      "لعبو": 3735,
      "الكاس": 3736,
      "درسة": 3737,
      "ميرة": 3738,
      "نتاا": 3739,
      "تشد": 3740,
      "هانتي": 3741,
      "ووا": 3742,
      "طن": 3743,
      "سيين": 3744,
      "سبب": 3745,
      "المخ": 3746,
      "المي": 3747,
      "باباك": 3748,
      "خاصنا": 3749,
      "ظهرها": 3750,
      "اااح": 3751,
      "كرم": 3752,
      "الفراش": 3753,
      "ريت": 3754,
      "نخرجو": 3755,
      "ايمان": 3756,
      "جعفر": 3757,
      "عااد": 3758,
      "غة": 3759,
      "هنادي": 3760,
      "صفر": 3761,
      "مزيرة": 3762,
      "خمس": 3763,
      "كمش": 3764,
      "أماني": 3765,
      "ومات": 3766,
      "راوية": 3767,
      "لحد": 3768,
      "خااا": 3769,
      "سام": 3770,
      "صمت": 3771,
      "صير": 3772,
      "كتي": 3773,
      "غاديين": 3774,
      "ضهرو": 3775,
      "جبت": 3776,
      "عجبني": 3777,
      "ينوض": 3778,
      "حياتك": 3779,
      "خوات": 3780,
      "ليب": 3781,
      "تاكل": 3782,
      "واليط": 3783,
      "لهيه": 3784,
      "يوقف": 3785,
      "الفيلا": 3786,
      "برج": 3787,
      "كيطلع": 3788,
      "كتحرك": 3789,
      "وصلنا": 3790,
      "سلوى": 3791,
      "حااجة": 3792,
      "جاج": 3793,
      "صفية": 3794,
      "بيضة": 3795,
      "المغرب": 3796,
      "نهج": 3797,
      "وعاد": 3798,
      "الاب": 3799,
      "عطاتو": 3800,
      "روعة": 3801,
      "عاقد": 3802,
      "بلاش": 3803,
      "ميساج": 3804,
      "اكرام": 3805,
      "سوس": 3806,
      "متع": 3807,
      "بدر": 3808,
      "ماتت": 3809,
      "بحب": 3810,
      "قاليا": 3811,
      "بالاي": 3812,
      "توجه": 3813,
      "خان": 3814,
      "تين": 3815,
      "وراق": 3816,
      "لبست": 3817,
      "مراتو": 3818,
      "حقق": 3819,
      "بارد": 3820,
      "تقرب": 3821,
      "بشكل": 3822,
      "عاونك": 3823,
      "ديي": 3824,
      "مريض": 3825,
      "عاف": 3826,
      "ارسلان": 3827,
      "جم": 3828,
      "هضرت": 3829,
      "مبتاسم": 3830,
      "دود": 3831,
      "عتق": 3832,
      "كيسمع": 3833,
      "فوجهها": 3834,
      "وتن": 3835,
      "فهمتي": 3836,
      "قائق": 3837,
      "ئي": 3838,
      "ختو": 3839,
      "تار": 3840,
      "خايف": 3841,
      "نيه": 3842,
      "عرق": 3843,
      "فی": 3844,
      "لحق": 3845,
      "تمن": 3846,
      "رااسو": 3847,
      "وغادي": 3848,
      "راف": 3849,
      "ديمارا": 3850,
      "الخوف": 3851,
      "سيدرا": 3852,
      "للكوزينة": 3853,
      "ئلة": 3854,
      "براكة": 3855,
      "عوبة": 3856,
      "ثلوج": 3857,
      "لحمام": 3858,
      "بدلو": 3859,
      "حوايجي": 3860,
      "اسما": 3861,
      "مراتي": 3862,
      "بروك": 3863,
      "الواليد": 3864,
      "هاهو": 3865,
      "كيبوس": 3866,
      "سيلين": 3867,
      "تشوفي": 3868,
      "نقو": 3869,
      "راضية": 3870,
      "الماكلة": 3871,
      "قالو": 3872,
      "علاااش": 3873,
      "وحنا": 3874,
      "گاع": 3875,
      "صبعو": 3876,
      "الكوزينة": 3877,
      "ذر": 3878,
      "عرفش": 3879,
      "مابقاش": 3880,
      "عقلك": 3881,
      "الطموبيل": 3882,
      "غسلات": 3883,
      "وياك": 3884,
      "دااك": 3885,
      "محط": 3886,
      "شافتها": 3887,
      "مجمع": 3888,
      "ثلا": 3889,
      "فهادشي": 3890,
      "مبغيتش": 3891,
      "فيي": 3892,
      "يييك": 3893,
      "بوك": 3894,
      "بالح": 3895,
      "مبتاسمة": 3896,
      "فيروز": 3897,
      "أسماء": 3898,
      "تغوت": 3899,
      "اللول": 3900,
      "كايت": 3901,
      "مجيد": 3902,
      "هير": 3903,
      "نح": 3904,
      "جوهرة": 3905,
      "قية": 3906,
      "الكون": 3907,
      "أحمد": 3908,
      "غانمشي": 3909,
      "معصبة": 3910,
      "قولو": 3911,
      "كديري": 3912,
      "ويل": 3913,
      "همم": 3914,
      "سلط": 3915,
      "بتها": 3916,
      "مغت": 3917,
      "اسم": 3918,
      "حيدو": 3919,
      "لهلا": 3920,
      "لمع": 3921,
      "مابغاتش": 3922,
      "رااسها": 3923,
      "حماق": 3924,
      "مركز": 3925,
      "بلال": 3926,
      "غدير": 3927,
      "سمان": 3928,
      "كلمات": 3929,
      "علاه": 3930,
      "سح": 3931,
      "العن": 3932,
      "يضرب": 3933,
      "وجلسات": 3934,
      "دقات": 3935,
      "غرو": 3936,
      "ناموسية": 3937,
      "واب": 3938,
      "مكنتش": 3939,
      "خايبة": 3940,
      "الفرحة": 3941,
      "زيدو": 3942,
      "صقر": 3943,
      "طيفة": 3944,
      "اولا": 3945,
      "دهم": 3946,
      "الشركة": 3947,
      "نرجعو": 3948,
      "كيصوني": 3949,
      "كريمة": 3950,
      "مصدوم": 3951,
      "كيمسح": 3952,
      "سيمانة": 3953,
      "نوال": 3954,
      "صاحبتي": 3955,
      "خوه": 3956,
      "يوصل": 3957,
      "صابر": 3958,
      "فطريق": 3959,
      "نمرة": 3960,
      "سار": 3961,
      "ساهية": 3962,
      "حيدي": 3963,
      "فالع": 3964,
      "اذا": 3965,
      "مشاا": 3966,
      "شداتها": 3967,
      "نفسي": 3968,
      "بفرحة": 3969,
      "موس": 3970,
      "بقي": 3971,
      "كرها": 3972,
      "مخلوعة": 3973,
      "هق": 3974,
      "ترتاح": 3975,
      "صم": 3976,
      "خاطرك": 3977,
      "ساكن": 3978,
      "تفيق": 3979,
      "خنزرات": 3980,
      "مكل": 3981,
      "ميرا": 3982,
      "جيداء": 3983,
      "الآ": 3984,
      "طعم": 3985,
      ")..": 3986,
      "عامرة": 3987,
      "نفسو": 3988,
      "منه": 3989,
      "الغالية": 3990,
      "بعدو": 3991,
      "العالم": 3992,
      "باغيش": 3993,
      "غنت": 3994,
      "جمال": 3995,
      "قصة": 3996,
      "گل": 3997,
      "جاوبها": 3998,
      "اهىء": 3999,
      "ودو": 4000,
      "والى": 4001,
      "دعي": 4002,
      "البل": 4003,
      "تمام": 4004,
      "حشمانة": 4005,
      "هزيت": 4006,
      "الثانية": 4007,
      "سامي": 4008,
      "اليزيد": 4009,
      "واء": 4010,
      "تانا": 4011,
      "برك": 4012,
      "مطل": 4013,
      "لبلاص": 4014,
      "ءء": 4015,
      "طارت": 4016,
      "ابتاسمات": 4017,
      "ملو": 4018,
      "موبي": 4019,
      "الكلام": 4020,
      "دقيقة": 4021,
      "معرفت": 4022,
      "وجهات": 4023,
      "تجر": 4024,
      "اااي": 4025,
      "عندكم": 4026,
      "بتسم": 4027,
      "نادية": 4028,
      "هنااا": 4029,
      "مجرد": 4030,
      "باللي": 4031,
      "حكيم": 4032,
      "درجة": 4033,
      "صع": 4034,
      "هضرتو": 4035,
      "تبعد": 4036,
      "العشية": 4037,
      "رارة": 4038,
      "رئبال": 4039,
      "صاب": 4040,
      "لبسو": 4041,
      "عيدة": 4042,
      "معندي": 4043,
      "بيرة": 4044,
      "خيرة": 4045,
      "رتاج": 4046,
      "الممرضة": 4047,
      "تفو": 4048,
      "عاودو": 4049,
      "طط": 4050,
      "وجمع": 4051,
      "كاتبكي": 4052,
      "هزي": 4053,
      "كونو": 4054,
      "العشا": 4055,
      "بقاات": 4056,
      "امممم": 4057,
      "الزين": 4058,
      "راجلي": 4059,
      "بنظرة": 4060,
      "متكية": 4061,
      "مبروك": 4062,
      "وقعات": 4063,
      "تاحي": 4064,
      "بالفرحة": 4065,
      "مااشي": 4066,
      "مشغ": 4067,
      "ذياب": 4068,
      "بغيتو": 4069,
      "للس": 4070,
      "عفااك": 4071,
      "سعيد": 4072,
      "خلاص": 4073,
      "تلاحت": 4074,
      "صحاب": 4075,
      "وخرجت": 4076,
      "وخرجو": 4077,
      "شهد": 4078,
      "ماغان": 4079,
      "ساه": 4080,
      "الصوت": 4081,
      "وووت": 4082,
      "اوووف": 4083,
      "ديو": 4084,
      "صااا": 4085,
      "________": 4086,
      "دارها": 4087,
      "فشعرها": 4088,
      "أمير": 4089,
      "صغار": 4090,
      "هديل": 4091,
      "جدا": 4092,
      "حني": 4093,
      "راسهاا": 4094,
      "ونص": 4095,
      "نظر": 4096,
      "بيتي": 4097,
      "كتعرف": 4098,
      "تبدا": 4099,
      "شريفة": 4100,
      "بيتو": 4101,
      "ينور": 4102,
      "حاجب": 4103,
      "ؤال": 4104,
      "قهوة": 4105,
      "إسراء": 4106,
      "الجا": 4107,
      "الغدا": 4108,
      "عصمان": 4109,
      "اسماعيل": 4110,
      "غادين": 4111,
      "كيجي": 4112,
      "تجا": 4113,
      "خالد": 4114,
      "ويس": 4115,
      "زوي": 4116,
      "باقة": 4117,
      "مزيااان": 4118,
      "بسخرية": 4119,
      "كتو": 4120,
      "للم": 4121,
      "فخا": 4122,
      "الصدمة": 4123,
      "شارة": 4124,
      "قاطعها": 4125,
      "نسيت": 4126,
      "مغمضة": 4127,
      "روو": 4128,
      "تبان": 4129,
      "مشينا": 4130,
      "جلا": 4131,
      "لمة": 4132,
      "بحالها": 4133,
      "بالايجاب": 4134,
      "سميتو": 4135,
      "فاز": 4136,
      "هاار": 4137,
      "أكد": 4138,
      "زكرياء": 4139,
      "الكلمة": 4140,
      "ياس": 4141,
      "فريال": 4142,
      "شيت": 4143,
      "قربت": 4144,
      "فوجهو": 4145,
      "صبعها": 4146,
      "نهى": 4147,
      "وحطات": 4148,
      "الهم": 4149,
      "مابغاش": 4150,
      "كذلك": 4151,
      "صيل": 4152,
      "يدوز": 4153,
      "نقت": 4154,
      "ياااك": 4155,
      "حياتو": 4156,
      "تلف": 4157,
      "بزااااف": 4158,
      "اتاي": 4159,
      "مابقيتش": 4160,
      "متأكدة": 4161,
      "سااا": 4162,
      "ضغط": 4163,
      "سرو": 4164,
      "ماكات": 4165,
      "بااح": 4166,
      "رتاحي": 4167,
      "حيدة": 4168,
      "ــــ": 4169,
      "هود": 4170,
      "قوليها": 4171,
      "بتعب": 4172,
      "لغرفة": 4173,
      "نار": 4174,
      "سمحيلي": 4175,
      "عاق": 4176,
      "سمير": 4177,
      "عدي": 4178,
      "فمي": 4179,
      "وديك": 4180,
      "شادا": 4181,
      "دخلها": 4182,
      "وكلشي": 4183,
      "جودية": 4184,
      "مكانتش": 4185,
      "تتبكي": 4186,
      "عك": 4187,
      "وفين": 4188,
      "التق": 4189,
      "جلي": 4190,
      "نعيط": 4191,
      "فالأرض": 4192,
      "عامل": 4193,
      "لمح": 4194,
      "قداا": 4195,
      "كارو": 4196,
      "جها": 4197,
      "كوه": 4198,
      "خيرا": 4199,
      "قريبة": 4200,
      "وانت": 4201,
      "نكمل": 4202,
      "قز": 4203,
      "عويناتها": 4204,
      "مغمض": 4205,
      "هياا": 4206,
      "ندم": 4207,
      "مايت": 4208,
      "القضية": 4209,
      "علی": 4210,
      "طاها": 4211,
      "ريش": 4212,
      "مشو": 4213,
      "ضارب": 4214,
      "بداك": 4215,
      "الرو": 4216,
      "كنقول": 4217,
      "لولا": 4218,
      "مخنز": 4219,
      "تنزل": 4220,
      "كاينين": 4221,
      "خليت": 4222,
      "اللهم": 4223,
      "اانة": 4224,
      "بيبي": 4225,
      "العملية": 4226,
      "أمجد": 4227,
      "وليدي": 4228,
      "بتوتر": 4229,
      "تقاد": 4230,
      "سه": 4231,
      "هيء": 4232,
      "جانبية": 4233,
      "الشمس": 4234,
      "حركة": 4235,
      "فترة": 4236,
      "حرام": 4237,
      "ذي": 4238,
      "يييييي": 4239,
      "فرحت": 4240,
      "راي": 4241,
      "مخرجة": 4242,
      "دوو": 4243,
      "قبلها": 4244,
      "مارة": 4245,
      "كونش": 4246,
      "مسخ": 4247,
      "اااو": 4248,
      "بيجامة": 4249,
      "عصب": 4250,
      "طبعا": 4251,
      "ابنت": 4252,
      "شبه": 4253,
      "عجبها": 4254,
      "جز": 4255,
      "كيق": 4256,
      "قتلو": 4257,
      "جاك": 4258,
      "بينات": 4259,
      "صديق": 4260,
      "يهز": 4261,
      "فاف": 4262,
      "حجبانها": 4263,
      "همام": 4264,
      "ماغات": 4265,
      "وطلعات": 4266,
      "بعن": 4267,
      "وشكون": 4268,
      "حتاا": 4269,
      "آسر": 4270,
      "حمرين": 4271,
      "نعام": 4272,
      "on": 4273,
      "يقرب": 4274,
      "وتبع": 4275,
      "هاها": 4276,
      "لبرا": 4277,
      "حياا": 4278,
      "تيليفونو": 4279,
      "حوايجك": 4280,
      "وياه": 4281,
      "ذكرى": 4282,
      "باان": 4283,
      "تلق": 4284,
      "صدم": 4285,
      "وفي": 4286,
      "ليااا": 4287,
      "ينيه": 4288,
      "وووه": 4289,
      "هضرتها": 4290,
      "احلام": 4291,
      "عان": 4292,
      "بيان": 4293,
      "دخلة": 4294,
      "كملت": 4295,
      "بحالو": 4296,
      "تبقاي": 4297,
      "سنى": 4298,
      "زية": 4299,
      "ظن": 4300,
      "وحتا": 4301,
      "ابتهال": 4302,
      "مكات": 4303,
      "ده": 4304,
      "ناضو": 4305,
      "!!!!": 4306,
      "تخرجي": 4307,
      "دقائق": 4308,
      "سمت": 4309,
      "لمياء": 4310,
      "فوقاش": 4311,
      "فطرو": 4312,
      "ندوي": 4313,
      "شيحاجة": 4314,
      "كنعرف": 4315,
      "جسمها": 4316,
      "فقت": 4317,
      "فالطريق": 4318,
      "حامي": 4319,
      "بغييت": 4320,
      "كتاكل": 4321,
      "ناردين": 4322,
      "حاض": 4323,
      "جيش": 4324,
      "اووف": 4325,
      "لاك": 4326,
      "بخجل": 4327,
      "هنية": 4328,
      "ووسف": 4329,
      "يمين": 4330,
      "بلات": 4331,
      "ودموع": 4332,
      "انني": 4333,
      "حساس": 4334,
      "تيشوف": 4335,
      "وقا": 4336,
      "آش": 4337,
      "بسبب": 4338,
      "جيهتو": 4339,
      "تسر": 4340,
      "حسب": 4341,
      "راو": 4342,
      "غمزها": 4343,
      "مشكيل": 4344,
      "العقل": 4345,
      "الدروج": 4346,
      "زنقة": 4347,
      "تهدني": 4348,
      "اتم": 4349,
      "عدن": 4350,
      "نااس": 4351,
      "فحياتي": 4352,
      "لطيفة": 4353,
      "معنديش": 4354,
      "واااش": 4355,
      "واد": 4356,
      "نيتي": 4357,
      "درهم": 4358,
      "للأ": 4359,
      "غريب": 4360,
      "ياااا": 4361,
      "واقي": 4362,
      "حميد": 4363,
      "فقد": 4364,
      "معندها": 4365,
      "تجمعو": 4366,
      "وجرها": 4367,
      "امينة": 4368,
      "تهدن": 4369,
      "حف": 4370,
      "ذة": 4371,
      "احح": 4372,
      "لحيتو": 4373,
      "غوب": 4374,
      "شناي": 4375,
      "شيط": 4376,
      "حادة": 4377,
      "بينوار": 4378,
      "سخف": 4379,
      "ماش": 4380,
      "باستهزاء": 4381,
      "وهادشي": 4382,
      "يعطيك": 4383,
      "رأ": 4384,
      "ااها": 4385,
      "هازا": 4386,
      "امتى": 4387,
      "اودي": 4388,
      "يجيب": 4389,
      "كيخ": 4390,
      "اوووو": 4391,
      "اغ": 4392,
      "ماعندك": 4393,
      "بصعوبة": 4394,
      "فوسط": 4395,
      "صفو": 4396,
      "فوقها": 4397,
      "والوو": 4398,
      "بالعكس": 4399,
      "اق": 4400,
      "الشعر": 4401,
      "10": 4402,
      "صداع": 4403,
      "الابتسامة": 4404,
      "تقدم": 4405,
      "جاوبو": 4406,
      "؛؛(": 4407,
      "أكيد": 4408,
      "كتجي": 4409,
      "راض": 4410,
      "يشد": 4411,
      "زايد": 4412,
      "خشات": 4413,
      "،،": 4414,
      "فااش": 4415,
      "حملش": 4416,
      "ابتسم": 4417,
      "حاجبها": 4418,
      "لمهم": 4419,
      "••": 4420,
      "راسهم": 4421,
      "ننن": 4422,
      "بست": 4423,
      "قلق": 4424,
      "لبها": 4425,
      "ساهي": 4426,
      "واو": 4427,
      "صها": 4428,
      "كيقرب": 4429,
      "براءة": 4430,
      "التحت": 4431,
      "هدرات": 4432,
      "الوجه": 4433,
      "يطلع": 4434,
      "مدو": 4435,
      "وخلا": 4436,
      "دائ": 4437,
      "قان": 4438,
      "يتو": 4439,
      "صافا": 4440,
      "نعسي": 4441,
      "ظا": 4442,
      "دت": 4443,
      "عاج": 4444,
      "لعندهم": 4445,
      "زاج": 4446,
      "ااع": 4447,
      "عليااا": 4448,
      "يبان": 4449,
      "وأنا": 4450,
      "اوى": 4451,
      "البن": 4452,
      "ختار": 4453,
      "كيز": 4454,
      "الاو": 4455,
      "زنة": 4456,
      "شاافت": 4457,
      "بقينا": 4458,
      "قم": 4459,
      "جايين": 4460,
      "رتيل": 4461,
      "نسيتي": 4462,
      "شيء": 4463,
      "الأول": 4464,
      "مكتب": 4465,
      "زادو": 4466,
      "هيام": 4467,
      "توقع": 4468,
      "توحشت": 4469,
      "أصلا": 4470,
      "خفت": 4471,
      "ألم": 4472,
      "بما": 4473,
      "طوو": 4474,
      "نساي": 4475,
      "جيهان": 4476,
      "بغيتيش": 4477,
      "ماد": 4478,
      "هممم": 4479,
      "شكوون": 4480,
      "كسوة": 4481,
      "نهضرو": 4482,
      "عارفها": 4483,
      "قدرو": 4484,
      "سليمان": 4485,
      "روب": 4486,
      "تقلق": 4487,
      "تخشات": 4488,
      "نيي": 4489,
      "لوة": 4490,
      "عوج": 4491,
      "مبقاش": 4492,
      "غداو": 4493,
      "موسي": 4494,
      "واخاا": 4495,
      "عوي": 4496,
      "قصيرة": 4497,
      "مشاات": 4498,
      "مطلع": 4499,
      "قدامهم": 4500,
      "قدي": 4501,
      "هادوك": 4502,
      "كاب": 4503,
      "نبقى": 4504,
      "الغا": 4505,
      "لعبة": 4506,
      "دراعو": 4507,
      "لخر": 4508,
      "مرف": 4509,
      "عيبة": 4510,
      "كيست": 4511,
      "تيمور": 4512,
      "دايرا": 4513,
      "الياس": 4514,
      "دوى": 4515,
      "كارد": 4516,
      "تابعا": 4517,
      "ثوم": 4518,
      "نووو": 4519,
      "وعي": 4520,
      "مابقاتش": 4521,
      "فتيحة": 4522,
      "اللوطو": 4523,
      "تفتح": 4524,
      "فقة": 4525,
      "الشيطان": 4526,
      "حدر": 4527,
      "ريقو": 4528,
      "اللون": 4529,
      "درنا": 4530,
      "الكبير": 4531,
      "بعدم": 4532,
      "عبا": 4533,
      "جبهتو": 4534,
      "تنع": 4535,
      "امنية": 4536,
      "سلطانة": 4537,
      "تعي": 4538,
      "عفت": 4539,
      "ونجي": 4540,
      "تعص": 4541,
      "وووك": 4542,
      "مرتك": 4543,
      "تلقا": 4544,
      "سابق": 4545,
      "العافية": 4546,
      "وحدا": 4547,
      "المو": 4548,
      "يكونو": 4549,
      "لكل": 4550,
      "هىء": 4551,
      "هانية": 4552,
      "بالن": 4553,
      "جيبي": 4554,
      "وكانت": 4555,
      "رضا": 4556,
      "وياها": 4557,
      "ريي": 4558,
      "خافش": 4559,
      "بيرو": 4560,
      "دقايق": 4561,
      "نعل": 4562,
      "تماع": 4563,
      "كتافو": 4564,
      "لفي": 4565,
      "بوسها": 4566,
      "شنا": 4567,
      "مافيها": 4568,
      "شعرهاا": 4569,
      "عفاااك": 4570,
      "يوقع": 4571,
      "فياا": 4572,
      "ذب": 4573,
      "صغر": 4574,
      "زاينة": 4575,
      "فهمت": 4576,
      "قصير": 4577,
      "طلات": 4578,
      "داب": 4579,
      "وووووو": 4580,
      "اته": 4581,
      "عينيهم": 4582,
      "عيانة": 4583,
      "فنان": 4584,
      "جنون": 4585,
      "ماكاي": 4586,
      "كيغوت": 4587,
      "غالية": 4588,
      "جامع": 4589,
      "الحبيب": 4590,
      "داني": 4591,
      "ماكانش": 4592,
      "ومشاو": 4593,
      "توعب": 4594,
      "وعط": 4595,
      "غااا": 4596,
      "هاكي": 4597,
      "تهرب": 4598,
      "خاوية": 4599,
      "كوهينور": 4600,
      "حطي": 4601,
      "بلاا": 4602,
      "أمل": 4603,
      "اكبر": 4604,
      "واس": 4605,
      "ميم": 4606,
      "غرف": 4607,
      "الايام": 4608,
      "ربيع": 4609,
      "حيم": 4610,
      "نموت": 4611,
      "يرا": 4612,
      "خلف": 4613,
      "عقلو": 4614,
      "سليم": 4615,
      "نشف": 4616,
      "تاش": 4617,
      "عريان": 4618,
      "همني": 4619,
      "شورت": 4620,
      "تكلم": 4621,
      "ردات": 4622,
      "نعيش": 4623,
      "سال": 4624,
      "لفت": 4625,
      "نعيمة": 4626,
      "كاتجري": 4627,
      "يييين": 4628,
      "دكشي": 4629,
      "كيدور": 4630,
      "فيهوم": 4631,
      "غم": 4632,
      "كضرب": 4633,
      "ييرة": 4634,
      "سرير": 4635,
      "واضح": 4636,
      "شداتو": 4637,
      "خاشي": 4638,
      "سنانها": 4639,
      "ينيها": 4640,
      "اسيل": 4641,
      "ضاي": 4642,
      "عارفين": 4643,
      "نفكر": 4644,
      "فيقي": 4645,
      "قادرة": 4646,
      "زيرة": 4647,
      "تقبل": 4648,
      "هاهي": 4649,
      "مصعب": 4650,
      "لجهة": 4651,
      "كالسة": 4652,
      "يووسف": 4653,
      "المج": 4654,
      "عاجب": 4655,
      "اط": 4656,
      "شني": 4657,
      "عرو": 4658,
      "الباا": 4659,
      "حداك": 4660,
      "كلسات": 4661,
      "عاارف": 4662,
      "يغ": 4663,
      "فكري": 4664,
      "تبعها": 4665,
      "عيونها": 4666,
      "واللي": 4667,
      "البوليس": 4668,
      "اذن": 4669,
      "بالخلعة": 4670,
      "سخون": 4671,
      "خدمت": 4672,
      "ياش": 4673,
      "ياقوت": 4674,
      "رقم": 4675,
      "بااغي": 4676,
      "لخدمة": 4677,
      "قلي": 4678,
      "عقلي": 4679,
      "نازلة": 4680,
      "آريا": 4681,
      "يضحك": 4682,
      "هزاتو": 4683,
      "اكي": 4684,
      "ريين": 4685,
      "قوي": 4686,
      "ايدي": 4687,
      "أجي": 4688,
      "السبب": 4689,
      "مكاي": 4690,
      "يحس": 4691,
      "بهم": 4692,
      "وبعد": 4693,
      "دكتور": 4694,
      "الحس": 4695,
      "اللولة": 4696,
      "كع": 4697,
      "بحكم": 4698,
      "عمل": 4699,
      "لؤ": 4700,
      "شهيد": 4701,
      "تضرب": 4702,
      "مابقا": 4703,
      "ئيا": 4704,
      "تمات": 4705,
      "لنا": 4706,
      "تقدري": 4707,
      "بقايش": 4708,
      "مفر": 4709,
      "بحرقة": 4710,
      "سعيدة": 4711,
      "انشاء": 4712,
      "كادير": 4713,
      "متبع": 4714,
      "بطب": 4715,
      "عارفاه": 4716,
      "قيصر": 4717,
      "فحالك": 4718,
      "عيطات": 4719,
      "مبغاش": 4720,
      "سيرو": 4721,
      "متأكد": 4722,
      "مخنزرة": 4723,
      "فراسي": 4724,
      "ورجعت": 4725,
      "اخير": 4726,
      "دع": 4727,
      "ينزل": 4728,
      "الضحك": 4729,
      "سليمة": 4730,
      "سيس": 4731,
      "فالصالون": 4732,
      "تتش": 4733,
      "خصوص": 4734,
      "لفلوس": 4735,
      "فبلاصتو": 4736,
      "وتك": 4737,
      "لمي": 4738,
      "كيهضرو": 4739,
      "يديرو": 4740,
      "السيدة": 4741,
      "بينها": 4742,
      "حلة": 4743,
      "زان": 4744,
      "نوريك": 4745,
      "زت": 4746,
      "سب": 4747,
      "بعمق": 4748,
      "فجأة": 4749,
      "التيلي": 4750,
      "وشعرها": 4751,
      "تشوفو": 4752,
      "re": 4753,
      "هضرات": 4754,
      "ودا": 4755,
      "طية": 4756,
      "مايا": 4757,
      "قنت": 4758,
      "سلامتك": 4759,
      "حالتو": 4760,
      "يهديك": 4761,
      "ديير": 4762,
      "-(": 4763,
      "لاط": 4764,
      "كلثوم": 4765,
      "غندير": 4766,
      "وقلبها": 4767,
      "زمرد": 4768,
      "سامة": 4769,
      "ظات": 4770,
      "ايهم": 4771,
      "تفكي": 4772,
      "عينين": 4773,
      "غريبة": 4774,
      "ثائر": 4775,
      "منوو": 4776,
      "كافي": 4777,
      "عالم": 4778,
      "شوميز": 4779,
      "صعيبة": 4780,
      "قليل": 4781,
      "ناااا": 4782,
      "واخ": 4783,
      "البكا": 4784,
      "الداخل": 4785,
      "الوحيد": 4786,
      "الفرصة": 4787,
      "نظرات": 4788,
      "عائلتها": 4789,
      "عندوو": 4790,
      "اهم": 4791,
      "كارط": 4792,
      "اااء": 4793,
      "سوسن": 4794,
      "ولادي": 4795,
      "شهقات": 4796,
      "الكلب": 4797,
      "قدش": 4798,
      "نزيد": 4799,
      "ييب": 4800,
      "قيق": 4801,
      "احت": 4802,
      "بله": 4803,
      "لاقاو": 4804,
      "لعة": 4805,
      "عمو": 4806,
      "اللحضة": 4807,
      "ومرة": 4808,
      "درتو": 4809,
      "سمعي": 4810,
      "خصر": 4811,
      "ماعندها": 4812,
      "داش": 4813,
      "تاسيا": 4814,
      "فراش": 4815,
      "لن": 4816,
      "لديك": 4817,
      "كياج": 4818,
      "تصاور": 4819,
      "تلبس": 4820,
      "مدير": 4821,
      "دورو": 4822,
      "الاج": 4823,
      "ثرة": 4824,
      "عود": 4825,
      "صيبة": 4826,
      "بالشوية": 4827,
      "حلها": 4828,
      "كيبكي": 4829,
      "غسان": 4830,
      "كاااا": 4831,
      "ستر": 4832,
      "معين": 4833,
      "شغل": 4834,
      "سربي": 4835,
      "مرتاحة": 4836,
      "جمعت": 4837,
      "كتنهج": 4838,
      "للدوش": 4839,
      "بكية": 4840,
      "in": 4841,
      "انمشي": 4842,
      "رودة": 4843,
      "ملامحو": 4844,
      "حركت": 4845,
      "ياخد": 4846,
      "الأس": 4847,
      "انيا": 4848,
      "وجدي": 4849,
      "بلاصتك": 4850,
      "ردي": 4851,
      "لاه": 4852,
      "احبيبتي": 4853,
      "شمن": 4854,
      "ضعي": 4855,
      "ابابا": 4856,
      "زلو": 4857,
      "نقص": 4858,
      "صالة": 4859,
      "وكتشوف": 4860,
      "بربي": 4861,
      "نورا": 4862,
      "طلقو": 4863,
      "عطاتها": 4864,
      "مراا": 4865,
      "يييش": 4866,
      "بينا": 4867,
      "نقولك": 4868,
      "معتز": 4869,
      "قرر": 4870,
      "دفعها": 4871,
      "حورية": 4872,
      "شط": 4873,
      "غضب": 4874,
      "قوس": 4875,
      "بيدة": 4876,
      "فيهااا": 4877,
      "باع": 4878,
      "وشدات": 4879,
      "كتك": 4880,
      "ويت": 4881,
      "حمقة": 4882,
      "لبسة": 4883,
      "نتااا": 4884,
      "للو": 4885,
      "ماغاي": 4886,
      "يبغي": 4887,
      "ماعرفت": 4888,
      "الصغيرة": 4889,
      "صغ": 4890,
      "ماات": 4891,
      "نجود": 4892,
      "قليلة": 4893,
      "لعن": 4894,
      "راية": 4895,
      "قادو": 4896,
      "حناكها": 4897,
      "أت": 4898,
      "وسناء": 4899,
      "نضت": 4900,
      "صرب": 4901,
      "غض": 4902,
      "تقو": 4903,
      "رنيم": 4904,
      "مغان": 4905,
      "وكيفاش": 4906,
      "الرجل": 4907,
      "شاي": 4908,
      "بدين": 4909,
      "عرفاتو": 4910,
      "عندهاا": 4911,
      "رضوان": 4912,
      "المدة": 4913,
      "توفيق": 4914,
      "مقابلة": 4915,
      "ضحكي": 4916,
      "الكسوة": 4917,
      "لسانها": 4918,
      "كيضحكو": 4919,
      "غتمشي": 4920,
      "شششش": 4921,
      "حست": 4922,
      "سبح": 4923,
      "نيفو": 4924,
      "زه": 4925,
      "فووق": 4926,
      "فالدروج": 4927,
      "مراق": 4928,
      "شحاال": 4929,
      "بييه": 4930,
      "ناحية": 4931,
      "هوشة": 4932,
      "غرام": 4933,
      "ودخلو": 4934,
      "فرة": 4935,
      "بارا": 4936,
      "هالي": 4937,
      "لينيك": 4938,
      "ياسيين": 4939,
      "عجبو": 4940,
      "ent": 4941,
      "دفنة": 4942,
      "الامر": 4943,
      "امتا": 4944,
      "حنكو": 4945,
      "ييم": 4946,
      "فقلبها": 4947,
      "فطان": 4948,
      "بالغوات": 4949,
      "تسكت": 4950,
      "وضرب": 4951,
      "شهور": 4952,
      "وكمل": 4953,
      "كوم": 4954,
      "خليل": 4955,
      "القحبة": 4956,
      "جبدو": 4957,
      "ونزلات": 4958,
      "كترمش": 4959,
      "بنظرات": 4960,
      "تااا": 4961,
      "محسن": 4962,
      "لياس": 4963,
      "كأنها": 4964,
      "وتشوف": 4965,
      "الاخرى": 4966,
      "مغرب": 4967,
      "تجيب": 4968,
      "المشكل": 4969,
      "يشوفها": 4970,
      "كتست": 4971,
      "يدين": 4972,
      "تعيش": 4973,
      "سبة": 4974,
      "سلامة": 4975,
      "رمش": 4976,
      "خصها": 4977,
      "رااسك": 4978,
      "تيرة": 4979,
      "المص": 4980,
      "هذاك": 4981,
      "وتة": 4982,
      "يسكت": 4983,
      "تنطق": 4984,
      "دراش": 4985,
      "لغدا": 4986,
      "ساعات": 4987,
      "المسا": 4988,
      "القر": 4989,
      "يييد": 4990,
      "وكيشوف": 4991,
      "وخلاها": 4992,
      "السما": 4993,
      "مأ": 4994,
      "عادية": 4995,
      "وووش": 4996,
      "كتقولي": 4997,
      "ذاب": 4998,
      "تحيد": 4999,
      "حاجا": 5000,
      "فازة": 5001,
      "اااار": 5002,
      "هدن": 5003,
      "خطف": 5004,
      "لداك": 5005,
      "الدو": 5006,
      "صفوان": 5007,
      "عاونها": 5008,
      "جوى": 5009,
      "ضى": 5010,
      "ظهرو": 5011,
      "ضهر": 5012,
      "قرعة": 5013,
      "محس": 5014,
      "تضحك": 5015,
      "طقة": 5016,
      "تور": 5017,
      "تط": 5018,
      "الدوش": 5019,
      "جاتو": 5020,
      "مسيو": 5021,
      "نقي": 5022,
      "انفا": 5023,
      "لحمها": 5024,
      "ضرها": 5025,
      "الهدرة": 5026,
      "دوات": 5027,
      "الدي": 5028,
      "بعدي": 5029,
      "بول": 5030,
      "راااا": 5031,
      "امر": 5032,
      "يارا": 5033,
      "معنقها": 5034,
      "احبيبي": 5035,
      "جوديا": 5036,
      "موج": 5037,
      "وكيف": 5038,
      "فينك": 5039,
      "حينت": 5040,
      "يهبط": 5041,
      "كلف": 5042,
      "وقفها": 5043,
      "مكين": 5044,
      "وفنفس": 5045,
      "هاذي": 5046,
      "يتها": 5047,
      "علق": 5048,
      "وداكشي": 5049,
      "علييها": 5050,
      "جامعة": 5051,
      "وسد": 5052,
      "قفزات": 5053,
      "الكي": 5054,
      "راهم": 5055,
      "شاب": 5056,
      "خطوات": 5057,
      "هالة": 5058,
      "ناخد": 5059,
      "رجلها": 5060,
      "بدلي": 5061,
      "يتة": 5062,
      "وقلت": 5063,
      "ونع": 5064,
      "جيك": 5065,
      "آآ": 5066,
      "امل": 5067,
      "الموسي": 5068,
      "فحض": 5069,
      "موضوع": 5070,
      "بحي": 5071,
      "جوع": 5072,
      "كتمشى": 5073,
      "باغية": 5074,
      "دخ": 5075,
      "ركبة": 5076,
      "لوم": 5077,
      "كاانت": 5078,
      "قع": 5079,
      "المة": 5080,
      "كينهج": 5081,
      "ببطئ": 5082,
      "شرح": 5083,
      "هضرتي": 5084,
      "قولها": 5085,
      "وضحك": 5086,
      "عاودت": 5087,
      "بينو": 5088,
      "كيكون": 5089,
      "داوي": 5090,
      "مزوجة": 5091,
      "ar": 5092,
      "إلياس": 5093,
      "لدوش": 5094,
      "خاطرو": 5095,
      "كتمشي": 5096,
      "كنسمع": 5097,
      "جمعي": 5098,
      "منع": 5099,
      "شادين": 5100,
      "ترا": 5101,
      "اااع": 5102,
      "فضي": 5103,
      "متم": 5104,
      "يارتو": 5105,
      "حبو": 5106,
      "الصغير": 5107,
      "كيشووف": 5108,
      "باغاش": 5109,
      "واها": 5110,
      "كاظم": 5111,
      "ماعندو": 5112,
      "ليهوم": 5113,
      "نفهم": 5114,
      "كتضحك": 5115,
      "حطت": 5116,
      "قيتي": 5117,
      "بالأ": 5118,
      "طايح": 5119,
      "خبي": 5120,
      "العام": 5121,
      "ودنيها": 5122,
      "بغينا": 5123,
      "خاطري": 5124,
      "اكتر": 5125,
      "ريحتو": 5126,
      "لهضرة": 5127,
      "التو": 5128,
      "فيكم": 5129,
      "عطيها": 5130,
      "درب": 5131,
      "تهبط": 5132,
      "يبقى": 5133,
      "نسولك": 5134,
      "مبغاتش": 5135,
      ".(": 5136,
      "العلا": 5137,
      "وداك": 5138,
      "كترجف": 5139,
      "ضرني": 5140,
      "رانيا": 5141,
      "لاتة": 5142,
      "نست": 5143,
      "نبدل": 5144,
      "ماكنتش": 5145,
      "هيدة": 5146,
      "نسيمة": 5147,
      "صص": 5148,
      "ظار": 5149,
      "عبر": 5150,
      "هت": 5151,
      "حدرات": 5152,
      "هاااد": 5153,
      "صاحبو": 5154,
      "دوزي": 5155,
      "عطيه": 5156,
      "بعنف": 5157,
      "عارفك": 5158,
      "وافو": 5159,
      "كرام": 5160,
      "ندوز": 5161,
      "فسي": 5162,
      "فبلاصة": 5163,
      "بلك": 5164,
      "كتغ": 5165,
      "ذرا": 5166,
      "الولي": 5167,
      "كنتسنا": 5168,
      "ينية": 5169,
      "بغى": 5170,
      "بخفوت": 5171,
      "الاست": 5172,
      "يشوفو": 5173,
      "الحرام": 5174,
      "عاودش": 5175,
      "انهم": 5176,
      "شامة": 5177,
      "لارا": 5178,
      "شان": 5179,
      "الوو": 5180,
      "ماج": 5181,
      "فييين": 5182,
      "سج": 5183,
      "عاوتاني": 5184,
      "حااال": 5185,
      "ساف": 5186,
      "قدم": 5187,
      "الحل": 5188,
      "قش": 5189,
      "حدها": 5190,
      "لاو": 5191,
      "يادة": 5192,
      "بلغ": 5193,
      "لمرة": 5194,
      "الورد": 5195,
      "لاوي": 5196,
      "هات": 5197,
      "تنهدت": 5198,
      "كتشووف": 5199,
      "كوون": 5200,
      "تاخد": 5201,
      "بالبكا": 5202,
      "ربط": 5203,
      "موسيو": 5204,
      "كرشي": 5205,
      "تحنى": 5206,
      "دمع": 5207,
      "فيت": 5208,
      "فتها": 5209,
      "جيني": 5210,
      "تعرض": 5211,
      "أل": 5212,
      "وحلات": 5213,
      "ناكل": 5214,
      "شوش": 5215,
      "معمر": 5216,
      "أه": 5217,
      "مصد": 5218,
      "فيصل": 5219,
      "كريست": 5220,
      "سيدة": 5221,
      "اتجاه": 5222,
      "لبو": 5223,
      "وسع": 5224,
      "خوو": 5225,
      "هااااا": 5226,
      "ينعس": 5227,
      "مامس": 5228,
      "سلات": 5229,
      "الورقة": 5230,
      "ديب": 5231,
      "فوذ": 5232,
      "تجلس": 5233,
      "نورة": 5234,
      "حطاتو": 5235,
      "ماعنديش": 5236,
      "كدب": 5237,
      "داخلين": 5238,
      "فاجئ": 5239,
      "تجري": 5240,
      "أسف": 5241,
      "تدير": 5242,
      "كرشو": 5243,
      "ضارو": 5244,
      "فخر": 5245,
      "فاهمة": 5246,
      "کی": 5247,
      "الزنبقة": 5248,
      "مزاال": 5249,
      "كتكون": 5250,
      "العمر": 5251,
      "قيل": 5252,
      "بردي": 5253,
      "تجاوب": 5254,
      "قشع": 5255,
      "فوقو": 5256,
      "مزالة": 5257,
      "غيرو": 5258,
      "باسل": 5259,
      "غاندير": 5260,
      "المدينة": 5261,
      "تستا": 5262,
      "شاشة": 5263,
      "كيزيد": 5264,
      "ويرة": 5265,
      "طابق": 5266,
      "مخليها": 5267,
      "يبقا": 5268,
      "قربو": 5269,
      "بغيتيني": 5270,
      "لؤي": 5271,
      "صلات": 5272,
      "شوق": 5273,
      "ديجا": 5274,
      "ولاا": 5275,
      "لقيتو": 5276,
      "ارا": 5277,
      "الراحة": 5278,
      "ماتو": 5279,
      "ساط": 5280,
      "خرجتي": 5281,
      "اوو": 5282,
      "ركز": 5283,
      "خاوي": 5284,
      "يتزوج": 5285,
      "تقتل": 5286,
      "ماقا": 5287,
      "وقبل": 5288,
      "فكرشها": 5289,
      "غفر": 5290,
      "دابز": 5291,
      "للباب": 5292,
      "حليت": 5293,
      "بضحك": 5294,
      "تزن": 5295,
      "الشيفور": 5296,
      "بابي": 5297,
      "مسؤ": 5298,
      "حاولت": 5299,
      "يناا": 5300,
      "قاء": 5301,
      "الثاني": 5302,
      "ترد": 5303,
      "رااجل": 5304,
      "زمان": 5305,
      "بدموع": 5306,
      "باردة": 5307,
      "واعدك": 5308,
      "تكش": 5309,
      "تسنى": 5310,
      "معندك": 5311,
      "نعست": 5312,
      "كاات": 5313,
      "العيالات": 5314,
      "يدوو": 5315,
      "فاليز": 5316,
      "ينعل": 5317,
      "يدك": 5318,
      "واجد": 5319,
      "نهاية": 5320,
      "دفعاتو": 5321,
      "وجر": 5322,
      "لاللة": 5323,
      "كتورة": 5324,
      "لقدام": 5325,
      "ممن": 5326,
      "ريب": 5327,
      "ندو": 5328,
      "حركو": 5329,
      "تنعسي": 5330,
      "يييل": 5331,
      "جاني": 5332,
      "الدري": 5333,
      "باستها": 5334,
      "حز": 5335,
      "مسي": 5336,
      "غالط": 5337,
      "ليسي": 5338,
      "للمغرب": 5339,
      "دفعو": 5340,
      "لاحظ": 5341,
      "للور": 5342,
      "طلقي": 5343,
      "بيدها": 5344,
      "...:": 5345,
      "عليي": 5346,
      "وبلا": 5347,
      "ريحتها": 5348,
      "متخافيش": 5349,
      "نقولها": 5350,
      "كملي": 5351,
      "عيطي": 5352,
      "مشيش": 5353,
      "نسات": 5354,
      "كلات": 5355,
      "احساس": 5356,
      "فحين": 5357,
      "قوول": 5358,
      "ليت": 5359,
      "اخيرا": 5360,
      "ماان": 5361,
      "دارهم": 5362,
      "ابو": 5363,
      "منز": 5364,
      "فجنا": 5365,
      "جسدها": 5366,
      "تجبد": 5367,
      "إلي": 5368,
      "وغي": 5369,
      "فييها": 5370,
      "كيحك": 5371,
      "لللل": 5372,
      "السة": 5373,
      "قبر": 5374,
      "وجبد": 5375,
      "الخاطر": 5376,
      "خدمتك": 5377,
      "نطلع": 5378,
      "يتش": 5379,
      "فحالا": 5380,
      "نلقا": 5381,
      "كيمشي": 5382,
      "حاد": 5383,
      "محطوط": 5384,
      "لفون": 5385,
      "مغاي": 5386,
      "داف": 5387,
      "عاء": 5388,
      "لقها": 5389,
      "بداا": 5390,
      "يال": 5391,
      "نعطيك": 5392,
      "وفر": 5393,
      "زام": 5394,
      "الحقيقة": 5395,
      "جج": 5396,
      "هبطت": 5397,
      "ووقفات": 5398,
      "طه": 5399,
      "صحيح": 5400,
      "نتر": 5401,
      "زدح": 5402,
      "نقوليك": 5403,
      "صااافي": 5404,
      "لبن": 5405,
      "ضرباتو": 5406,
      "تصم": 5407,
      "رون": 5408,
      "فكار": 5409,
      "ومة": 5410,
      "ففمها": 5411,
      "عصاب": 5412,
      "ييف": 5413,
      "الأم": 5414,
      "زاز": 5415,
      "حفيظة": 5416,
      "لوح": 5417,
      "تلاق": 5418,
      "يجيو": 5419,
      "الزاج": 5420,
      "جرب": 5421,
      "شت": 5422,
      "شغف": 5423,
      "مبت": 5424,
      "الفوطوي": 5425,
      "رجي": 5426,
      "كارلوس": 5427,
      "لعندي": 5428,
      "الطوموبيل": 5429,
      "الوقفة": 5430,
      "قتي": 5431,
      "وتم": 5432,
      "هدرو": 5433,
      "تقد": 5434,
      "بألم": 5435,
      "فصمت": 5436,
      "هابطة": 5437,
      "لجيهة": 5438,
      "مبقيتش": 5439,
      "نرتاح": 5440,
      "سرط": 5441,
      "))": 5442,
      "المرض": 5443,
      "ليف": 5444,
      "جراتها": 5445,
      "فحالي": 5446,
      "ناقص": 5447,
      "معنقا": 5448,
      "غرق": 5449,
      "حاولي": 5450,
      "فرنس": 5451,
      "وفال": 5452,
      "فكرت": 5453,
      "الوال": 5454,
      "بالدموع": 5455,
      "حان": 5456,
      "وفاش": 5457,
      "تصبح": 5458,
      "مجاوب": 5459,
      "شاعلة": 5460,
      "واجب": 5461,
      "الحر": 5462,
      "فاتجاه": 5463,
      "قتلها": 5464,
      "حطاتها": 5465,
      "مطلوق": 5466,
      "توجهات": 5467,
      "وخلي": 5468,
      "نازلين": 5469,
      "لعا": 5470,
      "...!": 5471,
      "مخبي": 5472,
      "وبداو": 5473,
      "do": 5474,
      "فارق": 5475,
      "تسد": 5476,
      "معاهاا": 5477,
      "نزلي": 5478,
      "الخطو": 5479,
      "اااااش": 5480,
      "كني": 5481,
      "بلاصتي": 5482,
      "تموت": 5483,
      "خلى": 5484,
      "تدوي": 5485,
      "ضرك": 5486,
      "الموسيقى": 5487,
      "ثير": 5488,
      "الموقف": 5489,
      "زيز": 5490,
      "حفيضة": 5491,
      "كدو": 5492,
      "دافع": 5493,
      "بالع": 5494,
      "تحبس": 5495,
      "نظرة": 5496,
      "كانبغي": 5497,
      "كولها": 5498,
      "كطلع": 5499,
      "كدوز": 5500,
      "ميي": 5501,
      "خلق": 5502,
      "راسة": 5503,
      "يلة": 5504,
      "عليهوم": 5505,
      "بخفة": 5506,
      "بعيون": 5507,
      "أهئ": 5508,
      "زعزع": 5509,
      "ماكره": 5510,
      "كيفااش": 5511,
      "سباب": 5512,
      "فوجها": 5513,
      "تاحد": 5514,
      "الحمل": 5515,
      "وهبطات": 5516,
      "الين": 5517,
      "انصاف": 5518,
      "خلاني": 5519,
      "الاولى": 5520,
      "صوو": 5521,
      "بالخف": 5522,
      "معجب": 5523,
      "نشوفها": 5524,
      "منهاا": 5525,
      "باباها": 5526,
      "تأكد": 5527,
      "مقدرتش": 5528,
      "آيات": 5529,
      "لولة": 5530,
      "وى": 5531,
      "آن": 5532,
      "يقلب": 5533,
      "وزادت": 5534,
      "نوات": 5535,
      "غييير": 5536,
      "سافر": 5537,
      "رشيد": 5538,
      "قلها": 5539,
      "كام": 5540,
      "ريحانة": 5541,
      "لفر": 5542,
      "السخ": 5543,
      "مانقدرش": 5544,
      "وهياا": 5545,
      "بيهاا": 5546,
      "كندير": 5547,
      "بففف": 5548,
      "توك": 5549,
      "وسكت": 5550,
      "تحم": 5551,
      "دان": 5552,
      "يخرجو": 5553,
      "عية": 5554,
      "طريقو": 5555,
      "لوجين": 5556,
      "راسوو": 5557,
      "زاي": 5558,
      "مغات": 5559,
      "بمجرد": 5560,
      "سوارت": 5561,
      "قربها": 5562,
      "صبااح": 5563,
      "مدر": 5564,
      "تابعها": 5565,
      "اكل": 5566,
      "طيارة": 5567,
      "تهااا": 5568,
      "فمهاا": 5569,
      "لوب": 5570,
      "وطلق": 5571,
      "ميلا": 5572,
      "الامور": 5573,
      "أنك": 5574,
      "العابدين": 5575,
      "...)": 5576,
      "عاااا": 5577,
      "سرح": 5578,
      "كيتسمع": 5579,
      "كتحل": 5580,
      "ووب": 5581,
      "ونوبيل": 5582,
      "طالق": 5583,
      "وعا": 5584,
      "شاه": 5585,
      "خصو": 5586,
      "ناها": 5587,
      "مسموع": 5588,
      "الخلعة": 5589,
      "تلافت": 5590,
      "ميع": 5591,
      "الگ": 5592,
      "ااني": 5593,
      "ولف": 5594,
      "ايب": 5595,
      "وحيد": 5596,
      "شوفات": 5597,
      "وسام": 5598,
      "ؤل": 5599,
      "نجوى": 5600,
      "الندى": 5601,
      "وتبكي": 5602,
      "حلت": 5603,
      "مجمعين": 5604,
      "عدو": 5605,
      "مرتاح": 5606,
      "استا": 5607,
      "بتاسمت": 5608,
      "ليد": 5609,
      "وقطع": 5610,
      "فاه": 5611,
      "قهو": 5612,
      "ااتش": 5613,
      "مناس": 5614,
      "الصالون": 5615,
      "ونطقات": 5616,
      "نوصل": 5617,
      "قوليه": 5618,
      "جنان": 5619,
      "قتلك": 5620,
      "هاادشي": 5621,
      "اتصال": 5622,
      "ضيق": 5623,
      "كتقاد": 5624,
      "احد": 5625,
      "عبي": 5626,
      "قدامك": 5627,
      "يبعد": 5628,
      "شفتيها": 5629,
      "مسافة": 5630,
      "فير": 5631,
      "ساء": 5632,
      "سميتي": 5633,
      "دني": 5634,
      "غوز": 5635,
      "نب": 5636,
      "خصلات": 5637,
      "لبحر": 5638,
      "فالمغرب": 5639,
      "راضي": 5640,
      "غاادي": 5641,
      "ساهل": 5642,
      "الحبيبة": 5643,
      "بقاوش": 5644,
      "حرف": 5645,
      "دول": 5646,
      "غد": 5647,
      "لكي": 5648,
      "نديك": 5649,
      "اناااا": 5650,
      "ساو": 5651,
      "مخليا": 5652,
      "مبقاتش": 5653,
      "ماالك": 5654,
      "رجعتي": 5655,
      "نسلة": 5656,
      "الغضب": 5657,
      "فطوموبيل": 5658,
      "ندوش": 5659,
      "داتش": 5660,
      "حاولات": 5661,
      "غرغرو": 5662,
      "معاياا": 5663,
      "طايحة": 5664,
      "ااااات": 5665,
      "زهر": 5666,
      "فصدرو": 5667,
      "كادو": 5668,
      "اولد": 5669,
      "ازار": 5670,
      "عائلتي": 5671,
      "ايل": 5672,
      "الاقل": 5673,
      "فييك": 5674,
      "ماتخافيش": 5675,
      "تض": 5676,
      "مدي": 5677,
      "لسانو": 5678,
      "ىى": 5679,
      "كتهز": 5680,
      "مكرهتش": 5681,
      "للقصر": 5682,
      "عتي": 5683,
      "نولي": 5684,
      "قادات": 5685,
      "نشووف": 5686,
      "هداية": 5687,
      "مفهمتش": 5688,
      "روق": 5689,
      "قلتها": 5690,
      "ديدة": 5691,
      "غفلة": 5692,
      "العل": 5693,
      "منفو": 5694,
      "صاص": 5695,
      "وبد": 5696,
      "الوحيدة": 5697,
      "وماشي": 5698,
      "خلود": 5699,
      "جيبها": 5700,
      "تشرب": 5701,
      "بكة": 5702,
      "يعاود": 5703,
      "المنظر": 5704,
      "تجاه": 5705,
      "جااا": 5706,
      "نقطع": 5707,
      "خايب": 5708,
      "يفة": 5709,
      "راسه": 5710,
      "ین": 5711,
      "لبنى": 5712,
      "تتت": 5713,
      "خااص": 5714,
      "شرة": 5715,
      "تبعاتو": 5716,
      "سوو": 5717,
      "نعا": 5718,
      "ودخلت": 5719,
      "المدير": 5720,
      "فرجليها": 5721,
      "الشيء": 5722,
      "دينة": 5723,
      "فلك": 5724,
      "ومزال": 5725,
      "برز": 5726,
      "لمدة": 5727,
      "طوال": 5728,
      "حوي": 5729,
      "وووع": 5730,
      "حناا": 5731,
      "شيفور": 5732,
      "مراتك": 5733,
      "ليهااا": 5734,
      "بوا": 5735,
      "تلعب": 5736,
      "رجليك": 5737,
      "عوجات": 5738,
      "ومشيت": 5739,
      "حلوة": 5740,
      "لفيلا": 5741,
      "قبضة": 5742,
      "روحي": 5743,
      "بللي": 5744,
      "كاتفكر": 5745,
      "محتاجة": 5746,
      "صلة": 5747,
      "..''": 5748,
      "الحبس": 5749,
      "بالضهر": 5750,
      "كطل": 5751,
      "دودة": 5752,
      "لحوايج": 5753,
      "لاخور": 5754,
      "حقك": 5755,
      "وث": 5756,
      "الهوا": 5757,
      "البكية": 5758,
      "هادئة": 5759,
      "الڤ": 5760,
      "بانش": 5761,
      "نصف": 5762,
      "هاحنا": 5763,
      "وافق": 5764,
      "مكياج": 5765,
      "مسمع": 5766,
      "مخن": 5767,
      "طلقني": 5768,
      "جرا": 5769,
      "ودة": 5770,
      "اااق": 5771,
      "حاوط": 5772,
      "اخت": 5773,
      "الوازنة": 5774,
      "نهاار": 5775,
      "اللو": 5776,
      "قار": 5777,
      "وتش": 5778,
      "قاص": 5779,
      "هاذشي": 5780,
      "خوا": 5781,
      "راااه": 5782,
      "ضرات": 5783,
      "وباسها": 5784,
      "ابتسام": 5785,
      "فيييه": 5786,
      "خخخ": 5787,
      "فيديو": 5788,
      "خلدون": 5789,
      "يدور": 5790,
      "فى": 5791,
      "بهد": 5792,
      "شعلات": 5793,
      "ايييه": 5794,
      "تفكير": 5795,
      "وماين": 5796,
      "طرة": 5797,
      "كيتفرج": 5798,
      "فرحانين": 5799,
      "رييي": 5800,
      "صلو": 5801,
      "مياسين": 5802,
      "كيشرب": 5803,
      "عينيا": 5804,
      "خبا": 5805,
      "داه": 5806,
      "كيحرك": 5807,
      "ندخلو": 5808,
      "نطلب": 5809,
      "طم": 5810,
      "ايمتا": 5811,
      "ايساف": 5812,
      "حسناء": 5813,
      "ترتاحي": 5814,
      "تفكرت": 5815,
      "منانة": 5816,
      "شادها": 5817,
      "هيل": 5818,
      "اوسمان": 5819,
      "نخدم": 5820,
      "وزيد": 5821,
      "قتلني": 5822,
      "محتاج": 5823,
      "كلما": 5824,
      "ريحان": 5825,
      "لتي": 5826,
      "ريما": 5827,
      "فراا": 5828,
      "طيحو": 5829,
      "جاة": 5830,
      "خيط": 5831,
      "الخاتم": 5832,
      "عائلتو": 5833,
      "فالكوزينة": 5834,
      "عروق": 5835,
      "شهاد": 5836,
      "وهنا": 5837,
      "وخلات": 5838,
      "تفضلي": 5839,
      "تقت": 5840,
      "وجهوو": 5841,
      "الفون": 5842,
      "البيرو": 5843,
      "مجموعة": 5844,
      "زالة": 5845,
      "نلبس": 5846,
      "مكمشة": 5847,
      "ماك": 5848,
      "سلطان": 5849,
      "دغية": 5850,
      "()": 5851,
      "ماكل": 5852,
      "وير": 5853,
      "رائد": 5854,
      "قتها": 5855,
      "سالاو": 5856,
      "حانية": 5857,
      "مااات": 5858,
      "زوجة": 5859,
      "علك": 5860,
      "ئية": 5861,
      "وباش": 5862,
      "ربيعة": 5863,
      "مقلقة": 5864,
      "سخونة": 5865,
      "حطيت": 5866,
      "الدكتور": 5867,
      "تمر": 5868,
      "حمو": 5869,
      "مخاص": 5870,
      "فالهضرة": 5871,
      "لعي": 5872,
      "يوري": 5873,
      "شيطان": 5874,
      "الحلوة": 5875,
      "هاه": 5876,
      "منزل": 5877,
      "حنة": 5878,
      "فبالك": 5879,
      "رعاد": 5880,
      "كأنه": 5881,
      "وووم": 5882,
      "قدرات": 5883,
      "حمرة": 5884,
      "نغ": 5885,
      "انين": 5886,
      "فتف": 5887,
      "جاتك": 5888,
      "يخليها": 5889,
      "مووت": 5890,
      "زاا": 5891,
      "معتصم": 5892,
      "زيزة": 5893,
      "بيازيد": 5894,
      "وعاود": 5895,
      "مغطي": 5896,
      "مناش": 5897,
      "ou": 5898,
      "تانية": 5899,
      "دخلنا": 5900,
      "راجعة": 5901,
      "لغرف": 5902,
      "العقد": 5903,
      "تزير": 5904,
      "عاصم": 5905,
      "كنهضر": 5906,
      "غاديا": 5907,
      "عليييك": 5908,
      "فتحت": 5909,
      "ووور": 5910,
      "كااان": 5911,
      "طين": 5912,
      "يية": 5913,
      "نقولو": 5914,
      "نقلب": 5915,
      "تاكلي": 5916,
      "خرجها": 5917,
      "مدينة": 5918,
      "حاضيها": 5919,
      "برجليها": 5920,
      "دوشات": 5921,
      "خدمتي": 5922,
      "ترجعي": 5923,
      "حضر": 5924,
      "خالي": 5925,
      "فهاا": 5926,
      "مقاد": 5927,
      "جابها": 5928,
      "يعطي": 5929,
      "ثانية": 5930,
      "لكان": 5931,
      "لاقا": 5932,
      "مقل": 5933,
      "وكنت": 5934,
      "غنية": 5935,
      "وخة": 5936,
      "يحط": 5937,
      "بكيش": 5938,
      "يومين": 5939,
      "المرأة": 5940,
      "~.": 5941,
      "تتق": 5942,
      "نفر": 5943,
      "اسبرو": 5944,
      "الصبر": 5945,
      "سلمو": 5946,
      "وبال": 5947,
      "لقيتها": 5948,
      "ايكون": 5949,
      "فالجردة": 5950,
      "مثل": 5951,
      "كور": 5952,
      "ينطق": 5953,
      "وترجع": 5954,
      "ااتهم": 5955,
      "الغطا": 5956,
      "كلينيك": 5957,
      "تمشات": 5958,
      "كاتحس": 5959,
      "اااااه": 5960,
      "سنايا": 5961,
      "تفووو": 5962,
      "ععع": 5963,
      "جناح": 5964,
      "كوول": 5965,
      "تهلاي": 5966,
      "مينا": 5967,
      "ماكين": 5968,
      "ميس": 5969,
      "بالظهر": 5970,
      "فوية": 5971,
      "تييي": 5972,
      "أنور": 5973,
      "ويلا": 5974,
      "هيد": 5975,
      "بسة": 5976,
      "تسالي": 5977,
      "مبغ": 5978,
      "خين": 5979,
      "رحم": 5980,
      "ومو": 5981,
      "بياس": 5982,
      "كتجمع": 5983,
      "....(": 5984,
      "مخشية": 5985,
      "كنفكر": 5986,
      "تمتم": 5987,
      "كتزيد": 5988,
      "ياها": 5989,
      "روع": 5990,
      "مفتو": 5991,
      "كااين": 5992,
      "خضر": 5993,
      "ناوية": 5994,
      "مرر": 5995,
      "لوش": 5996,
      "مشط": 5997,
      "نورس": 5998,
      "قام": 5999,
      "يموت": 6000,
      "باق": 6001,
      "جيل": 6002,
      "الكارد": 6003,
      "تماما": 6004,
      "غمضت": 6005,
      "تشا": 6006,
      "نعاونك": 6007,
      "يفيق": 6008,
      "طريقها": 6009,
      "مخلوع": 6010,
      "طرو": 6011,
      "دارك": 6012,
      "اياد": 6013,
      "خدودها": 6014,
      "وليس": 6015,
      "لييي": 6016,
      "بحنان": 6017,
      "عارفو": 6018,
      "عصير": 6019,
      "تلفتات": 6020,
      "فلم": 6021,
      "اوليدي": 6022,
      "تاب": 6023,
      "عنده": 6024,
      "نوصلك": 6025,
      "النوع": 6026,
      "الجوع": 6027,
      "خديت": 6028,
      "الجردة": 6029,
      "سني": 6030,
      "سيون": 6031,
      "بالدم": 6032,
      "عاطي": 6033,
      "التليفون": 6034,
      "لبال": 6035,
      "بسمت": 6036,
      "نتيي": 6037,
      "نشد": 6038,
      "صوتك": 6039,
      "نصبر": 6040,
      "بلهفة": 6041,
      "نهز": 6042,
      "خلعت": 6043,
      "أنو": 6044,
      "فست": 6045,
      "داو": 6046,
      "رجلو": 6047,
      "عبارة": 6048,
      "بالنفي": 6049,
      "********": 6050,
      "زغ": 6051,
      "البط": 6052,
      "ايمي": 6053,
      "براحة": 6054,
      "ثواني": 6055,
      "بحاال": 6056,
      "مروة": 6057,
      "ميش": 6058,
      "لدارهم": 6059,
      "سمو": 6060,
      "عطات": 6061,
      "وكلس": 6062,
      "يمشيو": 6063,
      "ولبسات": 6064,
      "فبالها": 6065,
      "لكم": 6066,
      "كيسر": 6067,
      "شافيها": 6068,
      "جنى": 6069,
      "مغوب": 6070,
      "يحبس": 6071,
      "مجا": 6072,
      "كنتو": 6073,
      "ابتسمت": 6074,
      "حري": 6075,
      "طبطب": 6076,
      "لعشية": 6077,
      "الحركة": 6078,
      "الكلبة": 6079,
      "مولات": 6080,
      "اااج": 6081,
      "فاهمو": 6082,
      "وهيبة": 6083,
      "جلابة": 6084,
      "مربعة": 6085,
      "كتخرج": 6086,
      "المجر": 6087,
      "سمعها": 6088,
      "نهيلة": 6089,
      "er": 6090,
      "مغادي": 6091,
      "الشرجم": 6092,
      "وقفي": 6093,
      "المغ": 6094,
      "التك": 6095,
      "تفضل": 6096,
      "حواا": 6097,
      "بيكم": 6098,
      "تخليني": 6099,
      "فذ": 6100,
      "يحل": 6101,
      "جبتي": 6102,
      "تني": 6103,
      "خلاو": 6104,
      "شنايفها": 6105,
      "عملية": 6106,
      "حاليا": 6107,
      "كايجري": 6108,
      "تعد": 6109,
      "محت": 6110,
      "وحش": 6111,
      "الخاصة": 6112,
      "تاصل": 6113,
      "النظ": 6114,
      "هشة": 6115,
      "ضاح": 6116,
      "جاتش": 6117,
      "حابسة": 6118,
      "ربعة": 6119,
      "صالح": 6120,
      "غذا": 6121,
      "جلول": 6122,
      "تتن": 6123,
      "مشاكل": 6124,
      "سف": 6125,
      "عارفا": 6126,
      "السر": 6127,
      "مهمة": 6128,
      "ضل": 6129,
      "عاطيها": 6130,
      "نتسنا": 6131,
      "ساطة": 6132,
      "للفيلا": 6133,
      "وغن": 6134,
      "كبار": 6135,
      "ريج": 6136,
      "عنقات": 6137,
      "مبعد": 6138,
      "لبسها": 6139,
      "خيتي": 6140,
      "اااال": 6141,
      "طابلة": 6142,
      "وشحال": 6143,
      "نسالي": 6144,
      "مقلق": 6145,
      "عيطت": 6146,
      "بجنب": 6147,
      "وكيت": 6148,
      "فإ": 6149,
      "زااد": 6150,
      "راحتك": 6151,
      "فقصة": 6152,
      "نم": 6153,
      "تمو": 6154,
      "التا": 6155,
      "لعرس": 6156,
      "الصداع": 6157,
      "قولش": 6158,
      "شكراا": 6159,
      "نسى": 6160,
      "النور": 6161,
      "واجي": 6162,
      "الخبار": 6163,
      "طالون": 6164,
      "نضا": 6165,
      "ناه": 6166,
      "عيي": 6167,
      "مقد": 6168,
      "بلق": 6169,
      "طها": 6170,
      "نقتل": 6171,
      "معاااك": 6172,
      "عيين": 6173,
      "حيدت": 6174,
      "اعصا": 6175,
      "مباركة": 6176,
      "كتحك": 6177,
      "عشرة": 6178,
      "تصدمات": 6179,
      "اخد": 6180,
      "20": 6181,
      "اارة": 6182,
      "ماكانتش": 6183,
      "بقيتيش": 6184,
      "عيطو": 6185,
      "ركابيه": 6186,
      "وووووووو": 6187,
      "العروسة": 6188,
      "الصراحة": 6189,
      "معارفش": 6190,
      "رامة": 6191,
      "----": 6192,
      "لوا": 6193,
      "تصبر": 6194,
      "محلول": 6195,
      "اثير": 6196,
      "فبيت": 6197,
      "غيرك": 6198,
      "فالما": 6199,
      "لقاا": 6200,
      "الدوا": 6201,
      "شروق": 6202,
      "الحفلة": 6203,
      "دجين": 6204,
      "المحامي": 6205,
      "الحزن": 6206,
      "ماقدراتش": 6207,
      "يطيح": 6208,
      "لبيتي": 6209,
      "فرحات": 6210,
      "ليييك": 6211,
      "قاليك": 6212,
      "خرجاات": 6213,
      "كاتها": 6214,
      "هواا": 6215,
      "مربع": 6216,
      "وعمر": 6217,
      "دال": 6218,
      "طفا": 6219,
      "مارية": 6220,
      "لمى": 6221,
      "مشغول": 6222,
      "فحنكها": 6223,
      "حرة": 6224,
      "ونرجع": 6225,
      "حقها": 6226,
      "سهى": 6227,
      "تيم": 6228,
      "قبلك": 6229,
      "دليل": 6230,
      "ليليا": 6231,
      "….": 6232,
      "الاع": 6233,
      "سمعيني": 6234,
      "شدة": 6235,
      "كيدوي": 6236,
      "المرات": 6237,
      "مود": 6238,
      "عليهااا": 6239,
      "حنينة": 6240,
      "مالنا": 6241,
      "شكووون": 6242,
      "اير": 6243,
      "تورية": 6244,
      "قداام": 6245,
      "عويشة": 6246,
      "سدو": 6247,
      "ولتو": 6248,
      "ربح": 6249,
      "كوس": 6250,
      "كيتع": 6251,
      "ميري": 6252,
      "تحركي": 6253,
      "خراا": 6254,
      "قن": 6255,
      "اااام": 6256,
      "العينين": 6257,
      "فطو": 6258,
      "القدام": 6259,
      "روحها": 6260,
      "ركابيها": 6261,
      "ميد": 6262,
      "ياختي": 6263,
      "شب": 6264,
      "فبيتها": 6265,
      "سادة": 6266,
      "كاامل": 6267,
      "نحط": 6268,
      "الواحد": 6269,
      "كتسول": 6270,
      "بدلت": 6271,
      "مافهمتش": 6272,
      "تبو": 6273,
      "لعين": 6274,
      "سخن": 6275,
      "بيش": 6276,
      "عائلتك": 6277,
      "نگ": 6278,
      "قلبت": 6279,
      "اعت": 6280,
      "غزز": 6281,
      "ييلة": 6282,
      "رجالو": 6283,
      "بلها": 6284,
      "الحليب": 6285,
      "الوراق": 6286,
      "نر": 6287,
      "منظر": 6288,
      "مستغرب": 6289,
      "أح": 6290,
      "لفطور": 6291,
      "الال": 6292,
      "الجر": 6293,
      "الفوطة": 6294,
      "اتا": 6295,
      "تحنات": 6296,
      "لوجه": 6297,
      "وصوت": 6298,
      "واصل": 6299,
      "تبعو": 6300,
      "مادير": 6301,
      "علو": 6302,
      "حنحن": 6303,
      "دباا": 6304,
      "معي": 6305,
      "امونة": 6306,
      "قبلي": 6307,
      "ميلة": 6308,
      "طاه": 6309,
      "الخي": 6310,
      "اكت": 6311,
      "مانا": 6312,
      "وااالو": 6313,
      "ببرودة": 6314,
      "اعمي": 6315,
      ":{": 6316,
      "ااااي": 6317,
      "عيشو": 6318,
      "قالتها": 6319,
      "خطرة": 6320,
      "طارق": 6321,
      "انيش": 6322,
      "نعسو": 6323,
      "كيخرج": 6324,
      "موش": 6325,
      "الالم": 6326,
      "سمعني": 6327,
      "قبلو": 6328,
      "ينك": 6329,
      "معاذ": 6330,
      "ومد": 6331,
      "برااا": 6332,
      "النموسية": 6333,
      "تخر": 6334,
      "وهادي": 6335,
      "شوفيه": 6336,
      "حدى": 6337,
      "سمة": 6338,
      "خصنا": 6339,
      "خنق": 6340,
      "زيل": 6341,
      "درها": 6342,
      "الاخر": 6343,
      "كايضحك": 6344,
      "العربي": 6345,
      "الاخيرة": 6346,
      "الحقي": 6347,
      "شووو": 6348,
      "عرفتو": 6349,
      "فحالو": 6350,
      "قطعت": 6351,
      "هانتا": 6352,
      "جاتني": 6353,
      "مايل": 6354,
      "تعيط": 6355,
      "الصورة": 6356,
      "at": 6357,
      "ريك": 6358,
      "جبينها": 6359,
      "حيتو": 6360,
      "اروى": 6361,
      "حاضر": 6362,
      "لقصر": 6363,
      "وباس": 6364,
      "ويديه": 6365,
      "العظ": 6366,
      "خودي": 6367,
      "تخلع": 6368,
      "كتقرا": 6369,
      "خرجنا": 6370,
      "حمار": 6371,
      "صدا": 6372,
      "غال": 6373,
      "كيعرف": 6374,
      "المراية": 6375,
      "le": 6376,
      "قلك": 6377,
      "دوزت": 6378,
      "شااا": 6379,
      "علاقت": 6380,
      "شغلك": 6381,
      "صدي": 6382,
      "قتو": 6383,
      "خلاتهم": 6384,
      "نوم": 6385,
      "قاليها": 6386,
      "ساروت": 6387,
      "فالوقت": 6388,
      "بسمي": 6389,
      "ياكل": 6390,
      "بلان": 6391,
      "تگ": 6392,
      "خيل": 6393,
      "سراج": 6394,
      "قيه": 6395,
      "شمال": 6396,
      "كيقرا": 6397,
      "ولله": 6398,
      "حار": 6399,
      ")...": 6400,
      "شحااال": 6401,
      "عنقهاا": 6402,
      "عمك": 6403,
      "كيقولو": 6404,
      "شمة": 6405,
      "مريام": 6406,
      "اصبح": 6407,
      "قدو": 6408,
      "جراتو": 6409,
      "خطط": 6410,
      "زيين": 6411,
      "صباعو": 6412,
      "بسيف": 6413,
      "غف": 6414,
      "غربة": 6415,
      "يدوي": 6416,
      "ثناء": 6417,
      "الاي": 6418,
      "صدفة": 6419,
      "طلحة": 6420,
      "جبدت": 6421,
      "يصبر": 6422,
      "إياد": 6423,
      "فالخدمة": 6424,
      "دارتها": 6425,
      "غاتمشي": 6426,
      "الصدر": 6427,
      "خمسة": 6428,
      "أع": 6429,
      "شال": 6430,
      "فيااا": 6431,
      "حداا": 6432,
      "يقي": 6433,
      "رضع": 6434,
      "خونا": 6435,
      "ثلاثة": 6436,
      "حقو": 6437,
      "مقدرش": 6438,
      "رقص": 6439,
      "مالكم": 6440,
      "يهو": 6441,
      "تاشي": 6442,
      "عقدات": 6443,
      "بمكر": 6444,
      "سناا": 6445,
      "ناك": 6446,
      "ونية": 6447,
      "خدمي": 6448,
      "ومس": 6449,
      "ماتها": 6450,
      "قك": 6451,
      "ولادها": 6452,
      "ريحت": 6453,
      "تغير": 6454,
      "مقدراتش": 6455,
      "تحركات": 6456,
      "طلاق": 6457,
      "هبطي": 6458,
      "نهائيا": 6459,
      "بلعاني": 6460,
      "وتعاود": 6461,
      "حارة": 6462,
      "وبات": 6463,
      "خدمتها": 6464,
      "يلي": 6465,
      "ودبا": 6466,
      "يعاون": 6467,
      "مثلا": 6468,
      "لصالون": 6469,
      "لقيتي": 6470,
      "ويهبط": 6471,
      "هضرش": 6472,
      "البار": 6473,
      "دخلتي": 6474,
      "مجر": 6475,
      "ولون": 6476,
      "هازال": 6477,
      "أحسن": 6478,
      "ئها": 6479,
      "توت": 6480,
      "سلاح": 6481,
      "فتو": 6482,
      "لخير": 6483,
      "غيري": 6484,
      "بقااا": 6485,
      "جلسها": 6486,
      "؟؟....": 6487,
      "جااي": 6488,
      "الريحة": 6489,
      "انسان": 6490,
      "وووج": 6491,
      "طاحو": 6492,
      "دورها": 6493,
      "رينال": 6494,
      "موبيلات": 6495,
      "اااااك": 6496,
      "تهنا": 6497,
      "عارض": 6498,
      "درش": 6499,
      "ريز": 6500,
      "فايقة": 6501,
      "سدي": 6502,
      "ووول": 6503,
      "بلب": 6504,
      "شديت": 6505,
      "فدوى": 6506,
      "تاص": 6507,
      "جيران": 6508,
      "خدمتو": 6509,
      "وتجي": 6510,
      "مقرب": 6511,
      "هكاا": 6512,
      "بيعة": 6513,
      "لوخرا": 6514,
      "حنك": 6515,
      "جاات": 6516,
      "نائل": 6517,
      "وملي": 6518,
      "خدمو": 6519,
      "كيسول": 6520,
      "الدقان": 6521,
      "فطري": 6522,
      "الفا": 6523,
      "ههههههههه": 6524,
      "قاطعو": 6525,
      "كاتقلب": 6526,
      "العنوان": 6527,
      "معط": 6528,
      "حيلة": 6529,
      "تتجري": 6530,
      "لراسها": 6531,
      "سهيلة": 6532,
      "لأن": 6533,
      "ههههههههههه": 6534,
      "بصبعو": 6535,
      "وسدات": 6536,
      "سميتك": 6537,
      "سؤال": 6538,
      "الفكرة": 6539,
      "مهبط": 6540,
      "وبقاو": 6541,
      "تيشورت": 6542,
      "وطلب": 6543,
      "نقتلك": 6544,
      "هاكة": 6545,
      "دييك": 6546,
      "شعيب": 6547,
      "طفات": 6548,
      "الكبيرة": 6549,
      "براهام": 6550,
      "الزاهية": 6551,
      "ثى": 6552,
      "للارض": 6553,
      "هوى": 6554,
      "نتو": 6555,
      "كبيير": 6556,
      "فحالها": 6557,
      "ثق": 6558,
      "زف": 6559,
      "اتكون": 6560,
      "ودفع": 6561,
      "جبدها": 6562,
      "قبلات": 6563,
      "كضور": 6564,
      "كتهدر": 6565,
      "بفف": 6566,
      "خم": 6567,
      "النااس": 6568,
      "ئد": 6569,
      "طواليط": 6570,
      "فمه": 6571,
      "معاااه": 6572,
      "وووون": 6573,
      "تولد": 6574,
      "ماماه": 6575,
      "طاير": 6576,
      "؟!!": 6577,
      "راد": 6578,
      "بيضاء": 6579,
      "العصا": 6580,
      "بينهم": 6581,
      "بالزز": 6582,
      "اسمها": 6583,
      "شيطة": 6584,
      "طلبو": 6585,
      "ضاا": 6586,
      "كتعاود": 6587,
      "بالخير": 6588,
      "ويد": 6589,
      "تسني": 6590,
      "غداا": 6591,
      "دخلش": 6592,
      "نتيجة": 6593,
      "كتجر": 6594,
      "ساك": 6595,
      "هادئ": 6596,
      "تعجب": 6597,
      "هربات": 6598,
      "الور": 6599,
      "معلقة": 6600,
      "ريف": 6601,
      "ريشة": 6602,
      "واجدة": 6603,
      "سبحان": 6604,
      "مبقا": 6605,
      "یه": 6606,
      "ماغي": 6607,
      "النمرة": 6608,
      "جولي": 6609,
      "فيقو": 6610,
      "تريكو": 6611,
      "شرو": 6612,
      "فلب": 6613,
      "قود": 6614,
      "مليات": 6615,
      "كتنخصص": 6616,
      "نحس": 6617,
      "ضربك": 6618,
      "قدس": 6619,
      "أخر": 6620,
      "يفكر": 6621,
      "بلى": 6622,
      "الصح": 6623,
      "باار": 6624,
      "البوس": 6625,
      "معك": 6626,
      "السلاح": 6627,
      "قوليك": 6628,
      "ذنب": 6629,
      "فجيبو": 6630,
      "نطقت": 6631,
      "قبي": 6632,
      "عشا": 6633,
      "غيجي": 6634,
      "خلينيش": 6635,
      "واحدة": 6636,
      "شرا": 6637,
      "غغ": 6638,
      "عليييه": 6639,
      "بغيتها": 6640,
      "ودنها": 6641,
      "بينك": 6642,
      "المخدة": 6643,
      "سلمت": 6644,
      "كيعيط": 6645,
      "كاتقول": 6646,
      "تقال": 6647,
      "جنات": 6648,
      "زوينين": 6649,
      "صونات": 6650,
      "بوه": 6651,
      "وصي": 6652,
      "سرعة": 6653,
      "ووها": 6654,
      "تيز": 6655,
      "لعشا": 6656,
      "العصير": 6657,
      "وايلي": 6658,
      "تخدم": 6659,
      "نوجد": 6660,
      "كتص": 6661,
      "حداث": 6662,
      "المشاكل": 6663,
      "أج": 6664,
      "تقابل": 6665,
      "احمر": 6666,
      "لييها": 6667,
      "الاخير": 6668,
      "نشق": 6669,
      "امو": 6670,
      "ورو": 6671,
      "بتساؤل": 6672,
      "ايلاف": 6673,
      "دعو": 6674,
      "ملابس": 6675,
      "ماال": 6676,
      "لومات": 6677,
      "شفتيه": 6678,
      "غين": 6679,
      "وتوجه": 6680,
      "وضار": 6681,
      "بوط": 6682,
      "كنتمنى": 6683,
      "خداو": 6684,
      "ماقدرش": 6685,
      "ربما": 6686,
      "طلبات": 6687,
      "ثل": 6688,
      "حتار": 6689,
      "كيهدر": 6690,
      "هوش": 6691,
      "السلامة": 6692,
      "؟؟...": 6693,
      "ندمت": 6694,
      "جسد": 6695,
      "والح": 6696,
      "بهادشي": 6697,
      "وومة": 6698,
      "قدات": 6699,
      "مابغيت": 6700,
      "حساات": 6701,
      "ويديها": 6702,
      "حشمات": 6703,
      "خاتم": 6704,
      "اللق": 6705,
      "علااااش": 6706,
      "السكر": 6707,
      "ودموعها": 6708,
      "فييي": 6709,
      "100": 6710,
      "مبح": 6711,
      "حبيب": 6712,
      "المسؤ": 6713,
      "تعاون": 6714,
      "ورات": 6715,
      "بداات": 6716,
      "كسيرا": 6717,
      "فلح": 6718,
      "غيا": 6719,
      "وقالي": 6720,
      "قوليا": 6721,
      "مامات": 6722,
      "الماضي": 6723,
      "ساعدة": 6724,
      "ستاهل": 6725,
      "ملكة": 6726,
      "أختي": 6727,
      "عدا": 6728,
      "ساد": 6729,
      "أسود": 6730,
      "لولد": 6731,
      "عيان": 6732,
      "الاسود": 6733,
      "فوجه": 6734,
      "وارت": 6735,
      "شيش": 6736,
      "علامن": 6737,
      "اتهاش": 6738,
      "عاجبها": 6739,
      "القبلة": 6740,
      "ييييه": 6741,
      "صاحبتها": 6742,
      "ودوز": 6743,
      "للغرفة": 6744,
      "حشمة": 6745,
      "هاادي": 6746,
      "خدامين": 6747,
      "نصر": 6748,
      "واح": 6749,
      "المل": 6750,
      "بااسل": 6751,
      "الشع": 6752,
      "الجنا": 6753,
      "مسم": 6754,
      "وترة": 6755,
      "هءهءهء": 6756,
      "كياكل": 6757,
      "الضربة": 6758,
      "لمست": 6759,
      "لهاش": 6760,
      "سينغ": 6761,
      "رحلة": 6762,
      "st": 6763,
      "ذق": 6764,
      "البق": 6765,
      "قاصح": 6766,
      "طافي": 6767,
      "كيبانو": 6768,
      "طبسيل": 6769,
      "فموو": 6770,
      "ستة": 6771,
      "الحدي": 6772,
      "خليهم": 6773,
      "كيتمشى": 6774,
      "جاوبش": 6775,
      "نوصلو": 6776,
      "ونهار": 6777,
      "اركان": 6778,
      "ابنيتي": 6779,
      "ماغها": 6780,
      "يلعب": 6781,
      "..؟": 6782,
      "وكتبكي": 6783,
      "تحنا": 6784,
      "وبا": 6785,
      "الأمر": 6786,
      "التها": 6787,
      "كيجريو": 6788,
      "شين": 6789,
      "نبقاو": 6790,
      "الوليد": 6791,
      "كتفهم": 6792,
      "الجلسة": 6793,
      "وكسي": 6794,
      "شفق": 6795,
      "كتشوفو": 6796,
      "رآه": 6797,
      "شنوووو": 6798,
      "نكونو": 6799,
      "ييو": 6800,
      "..)": 6801,
      "بيين": 6802,
      "بيسي": 6803,
      "برى": 6804,
      "تطلع": 6805,
      "الدورة": 6806,
      "الخبز": 6807,
      "لااااا": 6808,
      "عطيت": 6809,
      "بضحكة": 6810,
      "كيبري": 6811,
      "المدرسة": 6812,
      "الاط": 6813,
      "بشو": 6814,
      "فشفايفها": 6815,
      "محر": 6816,
      "ضربت": 6817,
      "شدت": 6818,
      "اينجل": 6819,
      "شرجم": 6820,
      "يخط": 6821,
      "نعطي": 6822,
      "مخبية": 6823,
      "ديريش": 6824,
      "فعو": 6825,
      "وجهاا": 6826,
      "مكتوب": 6827,
      "سجى": 6828,
      "خوت": 6829,
      "هولة": 6830,
      "السروال": 6831,
      "تعطي": 6832,
      "حكمة": 6833,
      "فكا": 6834,
      "عاضة": 6835,
      "مهرة": 6836,
      "السو": 6837,
      "ضم": 6838,
      "دغياا": 6839,
      "معرو": 6840,
      "يشدها": 6841,
      "المت": 6842,
      "جارة": 6843,
      "الرا": 6844,
      "نيروز": 6845,
      "متش": 6846,
      "تنهيدة": 6847,
      "وسيم": 6848,
      "أدهم": 6849,
      "باني": 6850,
      "خطر": 6851,
      "الخدم": 6852,
      "قرار": 6853,
      "إيمان": 6854,
      "بعينين": 6855,
      "وسخ": 6856,
      "مسج": 6857,
      "قوليش": 6858,
      "شخصية": 6859,
      "كاضحك": 6860,
      "تشووف": 6861,
      "معقول": 6862,
      "~~~~~~~~": 6863,
      "فقلبو": 6864,
      "المحل": 6865,
      "قبالتها": 6866,
      "*****": 6867,
      "قبرص": 6868,
      "يولي": 6869,
      "ديرة": 6870,
      "ومها": 6871,
      "وولا": 6872,
      "مشااا": 6873,
      "أناا": 6874,
      "دكر": 6875,
      "دمعو": 6876,
      "لراسك": 6877,
      "ييس": 6878,
      "متوقع": 6879,
      "يدييه": 6880,
      "منظ": 6881,
      "فكها": 6882,
      "al": 6883,
      "فصدرها": 6884,
      "الأب": 6885,
      "قررت": 6886,
      "بشرى": 6887,
      "طبق": 6888,
      "يفهم": 6889,
      "الشاف": 6890,
      "ماباغيش": 6891,
      "بنفي": 6892,
      "معندو": 6893,
      "قبط": 6894,
      "كأن": 6895,
      "حسو": 6896,
      "بصحتك": 6897,
      "ازرا": 6898,
      "يغوت": 6899,
      "الركبة": 6900,
      "ضاربة": 6901,
      "جاوبات": 6902,
      "اااااااااااااااا": 6903,
      "ريها": 6904,
      "حااول": 6905,
      "علها": 6906,
      "فارها": 6907,
      "ااااان": 6908,
      "ممتيق": 6909,
      "وهضر": 6910,
      "كتسنى": 6911,
      "ولدات": 6912,
      ".........": 6913,
      "خرجة": 6914,
      "آية": 6915,
      "كيديرو": 6916,
      "كنضحك": 6917,
      "فالصباح": 6918,
      "المعلم": 6919,
      "طبيعي": 6920,
      "شنق": 6921,
      "بوها": 6922,
      "للأرض": 6923,
      "or": 6924,
      "لارض": 6925,
      "فيلم": 6926,
      "سيت": 6927,
      "عارفاك": 6928,
      ":~(": 6929,
      "الهاتف": 6930,
      "كيتسناو": 6931,
      "ولق": 6932,
      "وليدات": 6933,
      "نقزات": 6934,
      "يستر": 6935,
      "وبقيت": 6936,
      "وزير": 6937,
      "ليني": 6938,
      "صق": 6939,
      "ريض": 6940,
      "كتشهق": 6941,
      "ركبت": 6942,
      "وتنهد": 6943,
      "ضمة": 6944,
      "مى": 6945,
      "هزاتها": 6946,
      "طاب": 6947,
      "لهدرة": 6948,
      "رجولي": 6949,
      "خليتي": 6950,
      "شعرك": 6951,
      "غيب": 6952,
      "يكما": 6953,
      "قلنا": 6954,
      "قلبه": 6955,
      "جهدها": 6956,
      "نجمع": 6957,
      "نصي": 6958,
      "اتكم": 6959,
      "امام": 6960,
      "خود": 6961,
      "عقرب": 6962,
      "ووووت": 6963,
      "وسطهم": 6964,
      "ححح": 6965,
      "بلطف": 6966,
      "فجو": 6967,
      "السف": 6968,
      "تابعاه": 6969,
      "غمة": 6970,
      "فجنب": 6971,
      "قدها": 6972,
      "ويي": 6973,
      "ساش": 6974,
      "ment": 6975,
      "اربي": 6976,
      "زهير": 6977,
      "كلسو": 6978,
      "لمها": 6979,
      "يييها": 6980,
      "مكانها": 6981,
      "وعنقها": 6982,
      "معان": 6983,
      "؟؟؟؟؟": 6984,
      "مرور": 6985,
      "بملامح": 6986,
      "دى": 6987,
      "رايا": 6988,
      "موسى": 6989,
      "للفوق": 6990,
      "قداش": 6991,
      "جميل": 6992,
      "طاج": 6993,
      "15": 6994,
      "ونفس": 6995,
      "وقيتة": 6996,
      "نتينا": 6997,
      "ريه": 6998,
      "هزاات": 6999,
      "الألم": 7000,
      "كاميليا": 7001,
      "توجد": 7002,
      "ماسمع": 7003,
      "نعمان": 7004,
      "جدة": 7005,
      "قوى": 7006,
      "المرايا": 7007,
      "معارفاش": 7008,
      "درتها": 7009,
      "تهلا": 7010,
      "صباعها": 7011,
      "منت": 7012,
      "سامح": 7013,
      "اهلا": 7014,
      "قضي": 7015,
      "مجه": 7016,
      "حيدها": 7017,
      "الشك": 7018,
      "دااخل": 7019,
      "عتين": 7020,
      "منعرف": 7021,
      "تعطلت": 7022,
      "أنير": 7023,
      "فيونا": 7024,
      "غنمشيو": 7025,
      "كط": 7026,
      "مندير": 7027,
      "دارتو": 7028,
      "يصوني": 7029,
      "يبرد": 7030,
      "گلس": 7031,
      "يناش": 7032,
      "ديمة": 7033,
      "كيدخل": 7034,
      "العكس": 7035,
      "مجموع": 7036,
      "ماري": 7037,
      "كيع": 7038,
      "للمكتب": 7039,
      "ييييييي": 7040,
      "خلاهم": 7041,
      "ضربني": 7042,
      "فالاخير": 7043,
      "الوليدة": 7044,
      "ستو": 7045,
      "الكول": 7046,
      "ندالة": 7047,
      "فحياتها": 7048,
      "نضر": 7049,
      "حافة": 7050,
      "لحظات": 7051,
      "لاصق": 7052,
      "واقيلة": 7053,
      "لابسين": 7054,
      "فيقها": 7055,
      "فبالو": 7056,
      "محم": 7057,
      "حومر": 7058,
      "ساامة": 7059,
      "ثقة": 7060,
      "مفاج": 7061,
      "نوضو": 7062,
      "حلاتو": 7063,
      "مستو": 7064,
      "تزاد": 7065,
      "يسلم": 7066,
      "ووط": 7067,
      "شاك": 7068,
      "القرعة": 7069,
      "راحتها": 7070,
      "كترجع": 7071,
      "باااش": 7072,
      "حظ": 7073,
      "كنضن": 7074,
      "حسرة": 7075,
      "وصلتي": 7076,
      "الصا": 7077,
      "القصة": 7078,
      "تعشاو": 7079,
      "كتفرج": 7080,
      "يته": 7081,
      "أفنان": 7082,
      "فقلبي": 7083,
      "وايع": 7084,
      "قوليلي": 7085,
      "فخبارك": 7086,
      "جزء": 7087,
      "قض": 7088,
      "بحماس": 7089,
      "يييير": 7090,
      "رااك": 7091,
      "گا": 7092,
      "شوفها": 7093,
      ":*": 7094,
      "اشارة": 7095,
      "موقف": 7096,
      "حالتك": 7097,
      "عيت": 7098,
      "ديريها": 7099,
      "حفلة": 7100,
      "طحت": 7101,
      "الانت": 7102,
      "هازين": 7103,
      "وجهة": 7104,
      "حييت": 7105,
      "مجب": 7106,
      "بصمت": 7107,
      "موووت": 7108,
      "ووني": 7109,
      "كتعيط": 7110,
      "حبتي": 7111,
      "عايشين": 7112,
      "ليزار": 7113,
      "شوفيها": 7114,
      "لقينا": 7115,
      "جهتها": 7116,
      "هني": 7117,
      "ريكس": 7118,
      "كنبكي": 7119,
      "لبة": 7120,
      "خليج": 7121,
      "دريس": 7122,
      "مليون": 7123,
      "ضورات": 7124,
      "كاااع": 7125,
      "يبدا": 7126,
      "ااسم": 7127,
      "باقين": 7128,
      "جاسمين": 7129,
      "وووة": 7130,
      "وام": 7131,
      "لواليدة": 7132,
      "يجري": 7133,
      "عامرين": 7134,
      "مابق": 7135,
      "حاسيس": 7136,
      "فكرو": 7137,
      "عوتاني": 7138,
      "كتح": 7139,
      "خلط": 7140,
      "بلين": 7141,
      "باغين": 7142,
      "لصق": 7143,
      "ومر": 7144,
      "اذ": 7145,
      "سنوات": 7146,
      "فقو": 7147,
      "معلق": 7148,
      "طوف": 7149,
      "ازين": 7150,
      "فعنقو": 7151,
      "اليك": 7152,
      "مزين": 7153,
      "بااقي": 7154,
      "طرط": 7155,
      "كلامي": 7156,
      "نبرة": 7157,
      "الاش": 7158,
      "غايجي": 7159,
      "كراميل": 7160,
      "اهىءاهىء": 7161,
      "لخرى": 7162,
      "ويرجع": 7163,
      "حاتم": 7164,
      "تافق": 7165,
      "قاع": 7166,
      "الصلا": 7167,
      "الخاص": 7168,
      "بتردد": 7169,
      "عرفتك": 7170,
      "كايضرب": 7171,
      "استغرب": 7172,
      "طعة": 7173,
      "نييت": 7174,
      "مراكش": 7175,
      "عسة": 7176,
      "فالسما": 7177,
      "فرك": 7178,
      "بالما": 7179,
      "كايقول": 7180,
      "وصلك": 7181,
      "ايوب": 7182,
      "المط": 7183,
      "تفك": 7184,
      "كيتسناها": 7185,
      "كتعرفي": 7186,
      "فكرش": 7187,
      "12": 7188,
      "فكو": 7189,
      "ماجا": 7190,
      "توس": 7191,
      "لبر": 7192,
      "الخبر": 7193,
      "عطل": 7194,
      "الكارو": 7195,
      "بوحدهم": 7196,
      "شربات": 7197,
      "كرهاتش": 7198,
      "كنواعدك": 7199,
      "خليش": 7200,
      "لعندك": 7201,
      "يدخلو": 7202,
      "بييي": 7203,
      "ريتي": 7204,
      "صام": 7205,
      "الحريق": 7206,
      "اااااف": 7207,
      "واك": 7208,
      "ميها": 7209,
      "قاسم": 7210,
      "يديهاا": 7211,
      "برجليه": 7212,
      "طفي": 7213,
      "قضية": 7214,
      "بادلو": 7215,
      "أبنتي": 7216,
      "شتا": 7217,
      "يحيد": 7218,
      "حاليل": 7219,
      "كيشوفها": 7220,
      "كايتسنا": 7221,
      "رخ": 7222,
      "معاهوم": 7223,
      "نتق": 7224,
      "تفكري": 7225,
      "ضورو": 7226,
      "اافي": 7227,
      "مابغ": 7228,
      "فاوين": 7229,
      "ويجي": 7230,
      "النص": 7231,
      "برديلة": 7232,
      "يبكي": 7233,
      "ولى": 7234,
      "بقلبها": 7235,
      "القوة": 7236,
      "عارفني": 7237,
      "اخور": 7238,
      "غطات": 7239,
      "تاليا": 7240,
      "الوعي": 7241,
      "وحطها": 7242,
      "ألو": 7243,
      "جسم": 7244,
      "بارت": 7245,
      "الغيرة": 7246,
      "بيناتكم": 7247,
      "دمي": 7248,
      "قصر": 7249,
      "رجا": 7250,
      "حدااه": 7251,
      "وبتا": 7252,
      "دائما": 7253,
      "ابيض": 7254,
      "وبة": 7255,
      "حادرة": 7256,
      "لقاتهم": 7257,
      "تفوو": 7258,
      "راءف": 7259,
      "الدخلة": 7260,
      "مابين": 7261,
      "عاوني": 7262,
      "رحب": 7263,
      "باغيا": 7264,
      "طراف": 7265,
      "لمكتب": 7266,
      "نعااس": 7267,
      "تحكم": 7268,
      "نديرها": 7269,
      "وخلاتو": 7270,
      "وجي": 7271,
      "بكر": 7272,
      "الروح": 7273,
      "منال": 7274,
      "اهاه": 7275,
      "موال": 7276,
      "غلطت": 7277,
      "تبرد": 7278,
      "ماع": 7279,
      "كيطل": 7280,
      "حسان": 7281,
      "مافي": 7282,
      "نتلاقاو": 7283,
      "الكو": 7284,
      "داابا": 7285,
      "عااود": 7286,
      "تليفونها": 7287,
      "مؤيد": 7288,
      "بطا": 7289,
      "سيي": 7290,
      "يوو": 7291,
      "للجنب": 7292,
      "وشدها": 7293,
      "قصى": 7294,
      "شوووف": 7295,
      "ديين": 7296,
      "درات": 7297,
      "ولادو": 7298,
      "وسة": 7299,
      "جت": 7300,
      "زمة": 7301,
      "مافيه": 7302,
      "يانا": 7303,
      "هبل": 7304,
      "الطي": 7305,
      "واست": 7306,
      "متوترة": 7307,
      "رخي": 7308,
      "مالقا": 7309,
      "كرهك": 7310,
      "أنت": 7311,
      "یر": 7312,
      "يجمع": 7313,
      "الموس": 7314,
      "سولي": 7315,
      "المك": 7316,
      "لبيرو": 7317,
      "نشرح": 7318,
      "ئرة": 7319,
      "يأ": 7320,
      "يوماين": 7321,
      "ميتة": 7322,
      "ولادك": 7323,
      "شربي": 7324,
      "عروسة": 7325,
      "فزة": 7326,
      "ممسوق": 7327,
      "زيدان": 7328,
      "تخلعات": 7329,
      "ذوق": 7330,
      "سيم": 7331,
      "حدك": 7332,
      "خليتو": 7333,
      "عينييه": 7334,
      "فكرات": 7335,
      "اصل": 7336,
      "الزمر": 7337,
      "بديتي": 7338,
      "ظلم": 7339,
      "غادير": 7340,
      "مسحت": 7341,
      "مدا": 7342,
      "شلا": 7343,
      "طوا": 7344,
      "محسات": 7345,
      "نجلس": 7346,
      "همسات": 7347,
      "السرعة": 7348,
      "امجد": 7349,
      "هكذا": 7350,
      "كدوي": 7351,
      "ورجعو": 7352,
      "دتي": 7353,
      "سيمة": 7354,
      "لوي": 7355,
      "فاصمة": 7356,
      "الملف": 7357,
      "حشمت": 7358,
      "ماجاوب": 7359,
      "ساكنة": 7360,
      "an": 7361,
      "زبيدة": 7362,
      "ضد": 7363,
      "لفين": 7364,
      "لازم": 7365,
      "...!!": 7366,
      "كيي": 7367,
      "للصالون": 7368,
      "باغيها": 7369,
      "ابتسمات": 7370,
      "تعلم": 7371,
      "فني": 7372,
      "مافيا": 7373,
      "اللعب": 7374,
      "قابلة": 7375,
      "الشاب": 7376,
      "خنا": 7377,
      "كايبان": 7378,
      "باغيين": 7379,
      "عالية": 7380,
      "البيض": 7381,
      "كلنا": 7382,
      "وجدات": 7383,
      "مالقات": 7384,
      "ماقدرتش": 7385,
      "غب": 7386,
      "كمشات": 7387,
      "البلاد": 7388,
      "لاها": 7389,
      "كلت": 7390,
      "فهمات": 7391,
      "منزلة": 7392,
      "قادة": 7393,
      "رجعها": 7394,
      "خرتها": 7395,
      "تسناي": 7396,
      "بتش": 7397,
      "مسة": 7398,
      "ديتي": 7399,
      "كاتبغي": 7400,
      "بعدت": 7401,
      "اون": 7402,
      "سمعاتو": 7403,
      "تكلف": 7404,
      "بادل": 7405,
      "غيرها": 7406,
      "بته": 7407,
      "ونيش": 7408,
      "غفران": 7409,
      "نهدر": 7410,
      "تسول": 7411,
      "يكفي": 7412,
      "مستح": 7413,
      "مستغربة": 7414,
      "صايب": 7415,
      "خفاف": 7416,
      "ولشي": 7417,
      "مابغيتيش": 7418,
      "بغاات": 7419,
      "أمي": 7420,
      "انتا": 7421,
      "دييي": 7422,
      "العشاء": 7423,
      ",,,,": 7424,
      "عريانة": 7425,
      "تيت": 7426,
      "شاط": 7427,
      "رعدو": 7428,
      "رشيدة": 7429,
      "جوب": 7430,
      "يفر": 7431,
      "وتبسم": 7432,
      "لقاات": 7433,
      "اض": 7434,
      "جنابها": 7435,
      "سبا": 7436,
      "ربت": 7437,
      "فالبلاصة": 7438,
      "العساس": 7439,
      "الجديد": 7440,
      "ودور": 7441,
      "ليييه": 7442,
      "فتحو": 7443,
      "غتجي": 7444,
      "صلاة": 7445,
      "ممنوع": 7446,
      "بلاد": 7447,
      "مطلق": 7448,
      "وجبدات": 7449,
      "ركس": 7450,
      "بياض": 7451,
      "ساها": 7452,
      "جاكيط": 7453,
      "جدو": 7454,
      "الصاك": 7455,
      "ماكت": 7456,
      "يديهم": 7457,
      "حواجبه": 7458,
      "وجلسو": 7459,
      "مساج": 7460,
      "قطعة": 7461,
      "براسك": 7462,
      "مكمل": 7463,
      "وزايد": 7464,
      "بيق": 7465,
      "تصبحي": 7466,
      "سيلفا": 7467,
      "جون": 7468,
      "تتحس": 7469,
      "بحث": 7470,
      "تالي": 7471,
      "زلي": 7472,
      "بلاطو": 7473,
      "ميرال": 7474,
      "إكرام": 7475,
      "غارق": 7476,
      "تهزي": 7477,
      "شارع": 7478,
      "####": 7479,
      "كاتحاول": 7480,
      "ذار": 7481,
      "زويين": 7482,
      "آلاء": 7483,
      "ارت": 7484,
      "خمم": 7485,
      "كترة": 7486,
      "شوة": 7487,
      "لاصقة": 7488,
      "ساهلة": 7489,
      "الجرح": 7490,
      "والووو": 7491,
      "لاحها": 7492,
      "كوولشي": 7493,
      "للحظة": 7494,
      "طالقة": 7495,
      "ايناس": 7496,
      "راح": 7497,
      "التف": 7498,
      "وبلي": 7499,
      "رسم": 7500,
      "شى": 7501,
      "عرة": 7502,
      "هرها": 7503,
      "بقلة": 7504,
      "لوك": 7505,
      "للتحت": 7506,
      "فشل": 7507,
      "ببتسامة": 7508,
      "موعد": 7509,
      "تقيل": 7510,
      "ربعات": 7511,
      "كيكمي": 7512,
      "عنها": 7513,
      "كنظن": 7514,
      "المق": 7515,
      "المساعدة": 7516,
      "قوش": 7517,
      "نيتة": 7518,
      "واخد": 7519,
      "ماكاينش": 7520,
      "ابدا": 7521,
      "كاو": 7522,
      "ااااد": 7523,
      "مرام": 7524,
      "تالفة": 7525,
      "السمطة": 7526,
      "وجمعات": 7527,
      "خشي": 7528,
      "عودة": 7529,
      "جواب": 7530,
      "كسر": 7531,
      "موصيبة": 7532,
      "غاتو": 7533,
      "بيس": 7534,
      "بتة": 7535,
      "طلقت": 7536,
      "دياال": 7537,
      "ستيرية": 7538,
      "بكات": 7539,
      "عاقلة": 7540,
      "طوطو": 7541,
      "تحول": 7542,
      "فحضنو": 7543,
      "عوض": 7544,
      "ماعارفاش": 7545,
      "يبارك": 7546,
      "الاحساس": 7547,
      "ضرباتها": 7548,
      "يحفظ": 7549,
      "بوالو": 7550,
      "لوات": 7551,
      "قرص": 7552,
      "قاليه": 7553,
      "ct": 7554,
      "خوتي": 7555,
      "ئب": 7556,
      "اكون": 7557,
      "امها": 7558,
      "الاح": 7559,
      "رااسي": 7560,
      "سهيل": 7561,
      "قلع": 7562,
      "الكر": 7563,
      "لبرد": 7564,
      "سرع": 7565,
      "متبعة": 7566,
      "ادا": 7567,
      "رباب": 7568,
      "لدارو": 7569,
      "الجد": 7570,
      "مغطية": 7571,
      "لسما": 7572,
      "المناس": 7573,
      "اووك": 7574,
      "فعة": 7575,
      "فقلب": 7576,
      "موح": 7577,
      "محاول": 7578,
      "نهبط": 7579,
      "نبداو": 7580,
      "حيتاش": 7581,
      "واليديها": 7582,
      "لامح": 7583,
      "جمعة": 7584,
      "شتك": 7585,
      "تخليه": 7586,
      "ترف": 7587,
      "غلا": 7588,
      "محي": 7589,
      "مهد": 7590,
      "وبغيت": 7591,
      "وبغات": 7592,
      "الغلط": 7593,
      "دايز": 7594,
      "لود": 7595,
      "قيمة": 7596,
      "مصيبة": 7597,
      "كريات": 7598,
      "سوار": 7599,
      "الموا": 7600,
      "داااا": 7601,
      "لكرسي": 7602,
      "ماحسات": 7603,
      "واخيرا": 7604,
      "حيدار": 7605,
      "للجردة": 7606,
      "بطة": 7607,
      "سهو": 7608,
      "هابطين": 7609,
      "بداية": 7610,
      "لوسط": 7611,
      "لدي": 7612,
      "ولقا": 7613,
      "تصدمت": 7614,
      "فالقصر": 7615,
      "شراب": 7616,
      "یله": 7617,
      "النق": 7618,
      "كتاش": 7619,
      "التص": 7620,
      "فطموبيل": 7621,
      "كثرة": 7622,
      "أميمة": 7623,
      "عشاو": 7624,
      "مابغا": 7625,
      "يرتاح": 7626,
      "الطيارة": 7627,
      "بعضياتنا": 7628,
      "موقع": 7629,
      "قاس": 7630,
      "جلنار": 7631,
      "بأس": 7632,
      "فالاول": 7633,
      "غطا": 7634,
      "نبعد": 7635,
      "وضارت": 7636,
      "الخل": 7637,
      "تير": 7638,
      "صاور": 7639,
      "ارتوك": 7640,
      "فاطنة": 7641,
      "فدروج": 7642,
      "سوء": 7643,
      "نعم": 7644,
      "واقعة": 7645,
      "الزنقة": 7646,
      "ماحس": 7647,
      "دابااا": 7648,
      "روم": 7649,
      "ينيي": 7650,
      "تيفاوين": 7651,
      "عيونو": 7652,
      "تكر": 7653,
      "خطة": 7654,
      "الفترة": 7655,
      "انات": 7656,
      "بيتك": 7657,
      "كتبوس": 7658,
      "عاض": 7659,
      "عاقل": 7660,
      "وصال": 7661,
      "ييييت": 7662,
      "نشرب": 7663,
      "غاااا": 7664,
      "لقاء": 7665,
      "اميين": 7666,
      "كايشوفو": 7667,
      "هديك": 7668,
      "ميج": 7669,
      "الحن": 7670,
      "تفطر": 7671,
      "شكا": 7672,
      "شمات": 7673,
      "كيح": 7674,
      "تسن": 7675,
      "يعيش": 7676,
      "كتبغيني": 7677,
      "لقاهم": 7678,
      "أشرف": 7679,
      "رمة": 7680,
      "هزة": 7681,
      "وراك": 7682,
      "كذب": 7683,
      "ذهبي": 7684,
      "تعامل": 7685,
      "لصدرو": 7686,
      "راحت": 7687,
      "ساعتين": 7688,
      "السيا": 7689,
      "خيير": 7690,
      "كمي": 7691,
      "ندوزو": 7692,
      "هيي": 7693,
      "فقص": 7694,
      "ماااشي": 7695,
      "_أسماء": 7696,
      "بحا": 7697,
      "العسل": 7698,
      "ماعجب": 7699,
      "شارك": 7700,
      "صاوب": 7701,
      "يييلي": 7702,
      "العظيم": 7703,
      "السفلية": 7704,
      "فلاش": 7705,
      "كيهز": 7706,
      "ميك": 7707,
      "سكن": 7708,
      "غيي": 7709,
      "تحطات": 7710,
      "نجاة": 7711,
      "فلوطو": 7712,
      "لاكو": 7713,
      "ووة": 7714,
      "بالليل": 7715,
      "للشركة": 7716,
      "فحالة": 7717,
      "حطوطة": 7718,
      "اففف": 7719,
      "علية": 7720,
      "لهت": 7721,
      "اااها": 7722,
      "بحاليلا": 7723,
      "يسالي": 7724,
      "تانتي": 7725,
      "وولي": 7726,
      "ويشوف": 7727,
      "بدة": 7728,
      "تفرق": 7729,
      "مدار": 7730,
      "بالصح": 7731,
      "جواهر": 7732,
      "ريع": 7733,
      "وتكات": 7734,
      "للخدمة": 7735,
      "منير": 7736,
      "كاتن": 7737,
      "عدب": 7738,
      "تهدر": 7739,
      "لحاجة": 7740,
      "كايبغي": 7741,
      "وهزها": 7742,
      "يقتل": 7743,
      "عبيقة": 7744,
      "يهوديت": 7745,
      "وغت": 7746,
      "ماكلة": 7747,
      "كيص": 7748,
      "ووض": 7749,
      "كتشرب": 7750,
      "نقدرو": 7751,
      "الفجر": 7752,
      "رحي": 7753,
      "منكم": 7754,
      "فالكحل": 7755,
      "ضوء": 7756,
      "طلبت": 7757,
      "ناااري": 7758,
      "القاعة": 7759,
      "إست": 7760,
      "وهمس": 7761,
      "هيلين": 7762,
      "ربات": 7763,
      "مشاعر": 7764,
      "فرحو": 7765,
      "عايدة": 7766,
      "cu": 7767,
      "وحا": 7768,
      "مابقات": 7769,
      "ريد": 7770,
      "وسمع": 7771,
      "بغاها": 7772,
      "ساليت": 7773,
      "ثيق": 7774,
      "كادور": 7775,
      "قدك": 7776,
      "بأن": 7777,
      "حزن": 7778,
      "لمت": 7779,
      "نبدا": 7780,
      "بثينة": 7781,
      "الوضعية": 7782,
      "لهادشي": 7783,
      "ماغو": 7784,
      "وتقول": 7785,
      "كيترعد": 7786,
      "بكثرة": 7787,
      "َّ": 7788,
      "كتخربق": 7789,
      "فايق": 7790,
      "خطيرة": 7791,
      "ئئ": 7792,
      "مبق": 7793,
      "كله": 7794,
      "اليه": 7795,
      "كيفاااش": 7796,
      "الجهد": 7797,
      "اسامة": 7798,
      "تبين": 7799,
      "يجيبو": 7800,
      "مرضات": 7801,
      "فجهة": 7802,
      "وكون": 7803,
      "راع": 7804,
      "عريضة": 7805,
      "وست": 7806,
      "كيبقا": 7807,
      "لعبي": 7808,
      "باغيك": 7809,
      "جايب": 7810,
      "موسيقى": 7811,
      "ليان": 7812,
      "روى": 7813,
      "حشمي": 7814,
      "تزوجت": 7815,
      "تسنيم": 7816,
      "مشاف": 7817,
      "روبي": 7818,
      "دمك": 7819,
      "وجلست": 7820,
      "حاااا": 7821,
      "ظلام": 7822,
      "كتجبد": 7823,
      "مطولا": 7824,
      "خاد": 7825,
      "السؤال": 7826,
      "صدره": 7827,
      "وقربات": 7828,
      "دينا": 7829,
      "لداار": 7830,
      "تنت": 7831,
      "الكحل": 7832,
      "تعطلتي": 7833,
      "نكملو": 7834,
      "الولاد": 7835,
      "لقلب": 7836,
      "بااه": 7837,
      "وااااا": 7838,
      "رمات": 7839,
      "شافتهم": 7840,
      "حليب": 7841,
      "ربا": 7842,
      "خذا": 7843,
      "قفطان": 7844,
      "سيمو": 7845,
      "تردد": 7846,
      "لحس": 7847,
      "المراة": 7848,
      "ريسطو": 7849,
      "البااب": 7850,
      "فخة": 7851,
      "اوووه": 7852,
      "بذ": 7853,
      "وتمشي": 7854,
      "وااخا": 7855,
      "هناااا": 7856,
      "جبو": 7857,
      "سرها": 7858,
      "مامي": 7859,
      "راخ": 7860,
      "ووء": 7861,
      "العرق": 7862,
      "نااري": 7863,
      "أوسمان": 7864,
      "تزوجي": 7865,
      "رااسهاا": 7866,
      "لواليد": 7867,
      "انش": 7868,
      "ريفة": 7869,
      "أب": 7870,
      "تقر": 7871,
      "بااس": 7872,
      "تصور": 7873,
      "حركش": 7874,
      "ادن": 7875,
      "اااتو": 7876,
      "بقوووة": 7877,
      "لكبير": 7878,
      "لتا": 7879,
      "شوه": 7880,
      "نجيبو": 7881,
      "احححح": 7882,
      "فخاطرها": 7883,
      "كيسوط": 7884,
      "معرت": 7885,
      "ونعس": 7886,
      "رهاف": 7887,
      "كبرات": 7888,
      "حترام": 7889,
      "بالس": 7890,
      "برات": 7891,
      "ليام": 7892,
      "لكو": 7893,
      "لكلام": 7894,
      "بصبا": 7895,
      "عارفاني": 7896,
      "الشكل": 7897,
      "الفم": 7898,
      "تيقي": 7899,
      "نييي": 7900,
      "باينا": 7901,
      "الصغار": 7902,
      "صلان": 7903,
      "؟..": 7904,
      "مشة": 7905,
      "نسان": 7906,
      "انع": 7907,
      "ريرة": 7908,
      "قدرت": 7909,
      "يخطيك": 7910,
      "علياااا": 7911,
      "فالمكتب": 7912,
      "كنقلب": 7913,
      "العدول": 7914,
      "ديكور": 7915,
      "موافقة": 7916,
      "وبو": 7917,
      "بديعة": 7918,
      "قرات": 7919,
      "ونمشي": 7920,
      "رفق": 7921,
      "المهدي": 7922,
      "جلها": 7923,
      "حلال": 7924,
      "البيسي": 7925,
      "كتبغيه": 7926,
      "تبسمت": 7927,
      "كيرجع": 7928,
      "خليتيني": 7929,
      "وراهم": 7930,
      "طى": 7931,
      "عمها": 7932,
      "نايف": 7933,
      "وجاد": 7934,
      "لمكان": 7935,
      "جوليا": 7936,
      "فأي": 7937,
      "هاهيا": 7938,
      "روس": 7939,
      "ساكها": 7940,
      "ولين": 7941,
      "واقلة": 7942,
      "رااات": 7943,
      "نسيم": 7944,
      "الوسط": 7945,
      "ااص": 7946,
      "القنت": 7947,
      "الشيخ": 7948,
      "علمو": 7949,
      "هيلا": 7950,
      "يديا": 7951,
      "التانية": 7952,
      "قلتلك": 7953,
      "يرحمها": 7954,
      "وقات": 7955,
      "عمرات": 7956,
      "الغوات": 7957,
      "تلفازة": 7958,
      "me": 7959,
      "سوداء": 7960,
      "الشراب": 7961,
      "سمحليا": 7962,
      "ااط": 7963,
      "الكوافو": 7964,
      "سوى": 7965,
      "البري": 7966,
      "تمسح": 7967,
      "قفة": 7968,
      "لبوليس": 7969,
      "وركب": 7970,
      "ممممم": 7971,
      "ترعد": 7972,
      "نعرفو": 7973,
      "لبلاصتها": 7974,
      "كيوقع": 7975,
      "لتهم": 7976,
      "دتها": 7977,
      "دياا": 7978,
      "ولينا": 7979,
      "تكبر": 7980,
      "معه": 7981,
      "بعفوية": 7982,
      "خرجش": 7983,
      "تيشورط": 7984,
      "ودني": 7985,
      "مقطع": 7986,
      "الوجع": 7987,
      "بغاا": 7988,
      "30": 7989,
      "واااحد": 7990,
      "وسعات": 7991,
      "مهاب": 7992,
      "بصاح": 7993,
      "هدوء": 7994,
      "بليل": 7995,
      "تحتها": 7996,
      "نظا": 7997,
      "يسي": 7998,
      "أبراهام": 7999,
      "عليش": 8000,
      "شوفش": 8001,
      "زامل": 8002,
      "كايدير": 8003,
      "صباط": 8004,
      "سالينا": 8005,
      "تربي": 8006,
      "خز": 8007,
      "ينات": 8008,
      "اييي": 8009,
      "عبق": 8010,
      "الطو": 8011,
      "كيضور": 8012,
      "وبز": 8013,
      "الجهة": 8014,
      "السع": 8015,
      "الفوت": 8016,
      "وصلني": 8017,
      "غارقة": 8018,
      "نوقف": 8019,
      "معيا": 8020,
      "شيرات": 8021,
      "كترت": 8022,
      "تشهق": 8023,
      "أكبر": 8024,
      "زبل": 8025,
      "محطوطة": 8026,
      "هرو": 8027,
      "هووو": 8028,
      "التحتي": 8029,
      "لاتو": 8030,
      "الساع": 8031,
      "عااينيه": 8032,
      "عميق": 8033,
      "قادرش": 8034,
      "ديالكم": 8035,
      "اسبوع": 8036,
      "أسية": 8037,
      "تووو": 8038,
      "شرات": 8039,
      "وباقي": 8040,
      "يعيط": 8041,
      "بنان": 8042,
      "سمطة": 8043,
      "فسر": 8044,
      "مزياااان": 8045,
      "حوراء": 8046,
      "عاطياه": 8047,
      "??": 8048,
      "حاني": 8049,
      "وداير": 8050,
      "غابة": 8051,
      "اهر": 8052,
      "خلعتيني": 8053,
      "سبع": 8054,
      "منخ": 8055,
      "شلال": 8056,
      "یت": 8057,
      "صاصة": 8058,
      "ماعرفاتش": 8059,
      "العلاقة": 8060,
      "فلت": 8061,
      "علال": 8062,
      "فنفسها": 8063,
      "دقان": 8064,
      "تطلق": 8065,
      "وتغوت": 8066,
      "بقلق": 8067,
      "امدام": 8068,
      "يستا": 8069,
      "تلاقا": 8070,
      "تلقى": 8071,
      "مهاا": 8072,
      "مخلا": 8073,
      "تقلبات": 8074,
      "حماقيتي": 8075,
      "لحيط": 8076,
      "لحالة": 8077,
      "وكلها": 8078,
      "كيجر": 8079,
      "شومبر": 8080,
      "بركة": 8081,
      "لمدينة": 8082,
      "نتمنى": 8083,
      "يدهاا": 8084,
      "فتا": 8085,
      "فداكشي": 8086,
      "مباغيش": 8087,
      "موراهم": 8088,
      "تهر": 8089,
      "وند": 8090,
      "متعط": 8091,
      "قاب": 8092,
      "كيترعدو": 8093,
      "ببب": 8094,
      "البيبي": 8095,
      "لمراية": 8096,
      "واقيلا": 8097,
      "إذن": 8098,
      "الدر": 8099,
      "هضرتك": 8100,
      "تعطيني": 8101,
      "دليلة": 8102,
      "كلب": 8103,
      "docu": 8104,
      "مبان": 8105,
      "الغي": 8106,
      "تحمل": 8107,
      "وديما": 8108,
      "كرك": 8109,
      "وعين": 8110,
      "خخخخ": 8111,
      "نايضة": 8112,
      "طلي": 8113,
      "مغر": 8114,
      "فالحيط": 8115,
      "document": 8116,
      "لعنقها": 8117,
      "الپ": 8118,
      "ديم": 8119,
      "جامة": 8120,
      "تتفكر": 8121,
      "ناعسين": 8122,
      "بقااو": 8123,
      "ببطء": 8124,
      "ضرا": 8125,
      "نصو": 8126,
      "قاطعاتو": 8127,
      "الطاكسي": 8128,
      "طحو": 8129,
      "راحتو": 8130,
      "شادية": 8131,
      "اصاحبتي": 8132,
      "البوا": 8133,
      "ديماا": 8134,
      "حام": 8135,
      "سمعش": 8136,
      "قااا": 8137,
      "كال": 8138,
      "ودير": 8139,
      "لبااس": 8140,
      "قطعو": 8141,
      "فخبا": 8142,
      "زدتي": 8143,
      "منيي": 8144,
      "ييط": 8145,
      "تارف": 8146,
      "ولايني": 8147,
      "داخلها": 8148,
      "النار": 8149,
      "شيي": 8150,
      "زيرو": 8151,
      "بلية": 8152,
      "معنقاه": 8153,
      "هاكدا": 8154,
      "حمام": 8155,
      "كالعادة": 8156,
      "رفزة": 8157,
      "المؤ": 8158,
      "مقادرش": 8159,
      "جدك": 8160,
      "شفي": 8161,
      "ونور": 8162,
      "ككك": 8163,
      "بالش": 8164,
      "ضاع": 8165,
      "جداد": 8166,
      "ماخلا": 8167,
      "عار": 8168,
      "روبن": 8169,
      "فالطبلة": 8170,
      "فقتي": 8171,
      "معندوش": 8172,
      "فتيليفون": 8173,
      "وكولشي": 8174,
      "نوي": 8175,
      "الشهر": 8176,
      "غوتي": 8177,
      "تمشى": 8178,
      "سرة": 8179,
      "غبة": 8180,
      "سومة": 8181,
      "طونوبيل": 8182,
      "همة": 8183,
      "أنني": 8184,
      "تمااا": 8185,
      "وتكا": 8186,
      "الدرب": 8187,
      "أركان": 8188,
      "الحارس": 8189,
      "بإست": 8190,
      "البلان": 8191,
      "مسخك": 8192,
      "ابا": 8193,
      "قنع": 8194,
      "مبل": 8195,
      "بعييد": 8196,
      "خشاها": 8197,
      "بطيئة": 8198,
      "كمار": 8199,
      "مفاهم": 8200,
      "كلك": 8201,
      "العمارة": 8202,
      "تفطري": 8203,
      "الوحش": 8204,
      "الجمال": 8205,
      "كرز": 8206,
      "ووح": 8207,
      "ومان": 8208,
      "فهاذ": 8209,
      "وااخة": 8210,
      "صيف": 8211,
      "يابو": 8212,
      "سومية": 8213,
      "لحرام": 8214,
      "فضول": 8215,
      "بلغوات": 8216,
      "ايدوو": 8217,
      "احبي": 8218,
      "لخدامة": 8219,
      "نبكي": 8220,
      "ايي": 8221,
      "كيتفكر": 8222,
      "فالساعة": 8223,
      "يرحمو": 8224,
      "وزايدون": 8225,
      "دوزها": 8226,
      "لخرا": 8227,
      "اهه": 8228,
      "فااا": 8229,
      "انسة": 8230,
      "ماباغاش": 8231,
      "كيلعبو": 8232,
      "رومان": 8233,
      "فاجر": 8234,
      "سمحو": 8235,
      "تقرا": 8236,
      "وبغا": 8237,
      "الصحة": 8238,
      "جيي": 8239,
      "وشاد": 8240,
      "يبوس": 8241,
      "رجعش": 8242,
      "ودن": 8243,
      "وااقف": 8244,
      "هذاا": 8245,
      "كاينا": 8246,
      "لوبة": 8247,
      "جاجة": 8248,
      "ولار": 8249,
      "نسول": 8250,
      "عاااد": 8251,
      "التحتية": 8252,
      "مسك": 8253,
      "سوتي": 8254,
      "صافيي": 8255,
      "تحلو": 8256,
      "غلى": 8257,
      "كسيوة": 8258,
      "بضهر": 8259,
      "أثر": 8260,
      "أيام": 8261,
      "الواقع": 8262,
      "باسم": 8263,
      "كيحل": 8264,
      "دويت": 8265,
      "ياف": 8266,
      "فالاسود": 8267,
      "الآن": 8268,
      "اينا": 8269,
      "ضلام": 8270,
      "عمتي": 8271,
      "قدة": 8272,
      "بالسيف": 8273,
      "جهدو": 8274,
      "معج": 8275,
      "تسناا": 8276,
      "دفعات": 8277,
      "اووو": 8278,
      "نخط": 8279,
      "ايف": 8280,
      "ماندير": 8281,
      "الأيام": 8282,
      "أولدي": 8283,
      "قحبة": 8284,
      "نسية": 8285,
      "بقبلة": 8286,
      "يييلة": 8287,
      "مجهد": 8288,
      "دوشت": 8289,
      "تهضري": 8290,
      "متوق": 8291,
      "سمحش": 8292,
      "حبيبتو": 8293,
      "لامو": 8294,
      "كيحيد": 8295,
      "يسول": 8296,
      "الكلمات": 8297,
      "وخصوصا": 8298,
      "رجات": 8299,
      "بعداا": 8300,
      "لطواليط": 8301,
      "ابن": 8302,
      "وطا": 8303,
      "ووووف": 8304,
      "فلباب": 8305,
      "لإ": 8306,
      "وكملات": 8307,
      "بابو": 8308,
      "بلعكس": 8309,
      "الحرب": 8310,
      "يييرة": 8311,
      "زعز": 8312,
      "ابتسامتها": 8313,
      "اساس": 8314,
      "مابغي": 8315,
      "بحنية": 8316,
      "فصل": 8317,
      "يده": 8318,
      "حطهم": 8319,
      "وإ": 8320,
      "لقاوها": 8321,
      "تهرس": 8322,
      "عيييت": 8323,
      "مرحباا": 8324,
      "نووض": 8325,
      "ايمن": 8326,
      "ااااب": 8327,
      "فنظ": 8328,
      "فحياتك": 8329,
      "he": 8330,
      "فرش": 8331,
      "ولادة": 8332,
      "سولها": 8333,
      "يطلق": 8334,
      "الووو": 8335,
      "حداهاا": 8336,
      "الطلاق": 8337,
      "تمتمات": 8338,
      "سخفانة": 8339,
      "قاصد": 8340,
      "كتاف": 8341,
      "جبر": 8342,
      "كيقاد": 8343,
      "كاك": 8344,
      "تخط": 8345,
      "اسر": 8346,
      "تحن": 8347,
      "الضي": 8348,
      "شاداها": 8349,
      "كلسي": 8350,
      "يلول": 8351,
      "الريح": 8352,
      "جناب": 8353,
      "ضحكتها": 8354,
      "ماكرهتش": 8355,
      "ووود": 8356,
      "متق": 8357,
      "متعة": 8358,
      "القدر": 8359,
      "نساش": 8360,
      "صحابو": 8361,
      "مبحوح": 8362,
      "لتما": 8363,
      "الشتا": 8364,
      "نمر": 8365,
      "نسمح": 8366,
      "كتهضري": 8367,
      "ساعا": 8368,
      "بدهشة": 8369,
      "عطيك": 8370,
      "الجنين": 8371,
      "بضة": 8372,
      "كتلبس": 8373,
      "قاعة": 8374,
      "كرهت": 8375,
      "ماعرفات": 8376,
      "صباع": 8377,
      "رفيف": 8378,
      "المستشفى": 8379,
      "بصرامة": 8380,
      "عينييها": 8381,
      "جهت": 8382,
      "شكلاط": 8383,
      "بلقيس": 8384,
      "فبعضياتهم": 8385,
      "بزاااااف": 8386,
      "بقووة": 8387,
      "الجدة": 8388,
      "ساكتين": 8389,
      "الاوطيل": 8390,
      "لقاي": 8391,
      "داركم": 8392,
      "حمها": 8393,
      "شدني": 8394,
      "وذنيها": 8395,
      "مغا": 8396,
      "رور": 8397,
      "طيتي": 8398,
      "ييييك": 8399,
      "بريئة": 8400,
      "دخول": 8401,
      "بسيل": 8402,
      "فبالي": 8403,
      "كيبقى": 8404,
      "ريلا": 8405,
      "الماا": 8406,
      "متبقايش": 8407,
      "مااااا": 8408,
      "قبالتو": 8409,
      "بركات": 8410,
      "شافهم": 8411,
      "ندن": 8412,
      "___": 8413,
      "ماكياج": 8414,
      "عاقدة": 8415,
      "اسية": 8416,
      "وغان": 8417,
      "يجرها": 8418,
      "موك": 8419,
      "بنفا": 8420,
      "مشااات": 8421,
      "بااك": 8422,
      "الجديدة": 8423,
      "صفرة": 8424,
      "اووووف": 8425,
      "عنقي": 8426,
      "الابيض": 8427,
      "الفرا": 8428,
      "جهها": 8429,
      "غرفتها": 8430,
      "لفازة": 8431,
      "لاع": 8432,
      "غاتجي": 8433,
      "الاتصال": 8434,
      "تحركو": 8435,
      "ب2": 8436,
      "هب": 8437,
      "حدث": 8438,
      "رطب": 8439,
      "گلسات": 8440,
      "غتن": 8441,
      "نوووو": 8442,
      "تشوفها": 8443,
      "منييي": 8444,
      "عرفتش": 8445,
      "فلخر": 8446,
      "بنيتي": 8447,
      "وناا": 8448,
      "رته": 8449,
      "لز": 8450,
      "وشادة": 8451,
      "ماهي": 8452,
      "لابة": 8453,
      "فحياتو": 8454,
      "انفاسها": 8455,
      "هييي": 8456,
      "راقي": 8457,
      "الاحسن": 8458,
      "طاس": 8459,
      "بحالهم": 8460,
      "جاوبي": 8461,
      "تزوجتي": 8462,
      "..‎": 8463,
      "كاء": 8464,
      "خلاوها": 8465,
      "ئدة": 8466,
      "واصلا": 8467,
      "كلوو": 8468,
      "قررات": 8469,
      "كلامك": 8470,
      "آذ": 8471,
      "فالغرفة": 8472,
      "فاتت": 8473,
      "وجاوب": 8474,
      "فدوك": 8475,
      "لكانت": 8476,
      "وبي": 8477,
      "كيتف": 8478,
      "روي": 8479,
      "ورين": 8480,
      "بلون": 8481,
      "تتتت": 8482,
      "جنبي": 8483,
      "وااقع": 8484,
      "نهال": 8485,
      "ضهري": 8486,
      "رجلين": 8487,
      "همو": 8488,
      "فتك": 8489,
      "خليفة": 8490,
      "مقادة": 8491,
      "جاوبت": 8492,
      "مخلية": 8493,
      "نتزوجو": 8494,
      "ندق": 8495,
      "بإبتسامة": 8496,
      "ييح": 8497,
      "نفسك": 8498,
      "الشرطة": 8499,
      "باج": 8500,
      "ريهام": 8501,
      "ااااح": 8502,
      "بدى": 8503,
      "اللحم": 8504,
      "داارت": 8505,
      "الفيديو": 8506,
      "سيلفادور": 8507,
      "ابتاسمت": 8508,
      "يالا": 8509,
      "ميمتي": 8510,
      "ساليتي": 8511,
      "الحمقة": 8512,
      "بسيطة": 8513,
      "درية": 8514,
      "شتها": 8515,
      "سيها": 8516,
      "متبعا": 8517,
      "تتحرك": 8518,
      "حبسات": 8519,
      "وااااش": 8520,
      "قوتها": 8521,
      "وماي": 8522,
      "بالفقصة": 8523,
      "نشري": 8524,
      "ضعيفة": 8525,
      "عشي": 8526,
      "جارها": 8527,
      "بوبة": 8528,
      "ومشى": 8529,
      "أصبح": 8530,
      "فليل": 8531,
      "لحتى": 8532,
      "فينها": 8533,
      "جرني": 8534,
      "عادتها": 8535,
      "حبها": 8536,
      "بييك": 8537,
      "دوب": 8538,
      "وتق": 8539,
      "مركزة": 8540,
      "العيد": 8541,
      "حامل": 8542,
      "سرعان": 8543,
      "صوفي": 8544,
      "حمة": 8545,
      "غطي": 8546,
      "وبت": 8547,
      "هومش": 8548,
      "فالش": 8549,
      "الحساب": 8550,
      "مكنعرف": 8551,
      "بصوتو": 8552,
      "بسبابك": 8553,
      "مافيهاش": 8554,
      "سؤ": 8555,
      "طرات": 8556,
      "مرحب": 8557,
      "كايقلب": 8558,
      "خصرو": 8559,
      "ادي": 8560,
      "كنجري": 8561,
      "بالحق": 8562,
      "زييد": 8563,
      "سولو": 8564,
      "سهیله": 8565,
      "دكتورة": 8566,
      "نادم": 8567,
      "وجة": 8568,
      "الاخ": 8569,
      "مزااال": 8570,
      "تعطيه": 8571,
      "عشرين": 8572,
      "مخص": 8573,
      "رجفو": 8574,
      "فاخ": 8575,
      "متى": 8576,
      "متبقاش": 8577,
      "همسلها": 8578,
      "تدور": 8579,
      "مكر": 8580,
      "معز": 8581,
      "شارت": 8582,
      "ميسارية": 8583,
      "كنة": 8584,
      "والع": 8585,
      "الخطبة": 8586,
      "لامها": 8587,
      "شيئ": 8588,
      "ناد": 8589,
      "فتة": 8590,
      "اووه": 8591,
      "بووو": 8592,
      "فيقة": 8593,
      "داعب": 8594,
      "ففمو": 8595,
      "مكايناش": 8596,
      "زويينة": 8597,
      "طون": 8598,
      "والديك": 8599,
      "صدقاء": 8600,
      "بنية": 8601,
      "گول": 8602,
      "هولاكو": 8603,
      "حاش": 8604,
      "بالج": 8605,
      "جهدي": 8606,
      "de": 8607,
      "يسمح": 8608,
      "غوباش": 8609,
      "معندهاش": 8610,
      "con": 8611,
      "علاياش": 8612,
      "غرين": 8613,
      "عااارف": 8614,
      "تخافي": 8615,
      "قميجة": 8616,
      "نتاااا": 8617,
      "البك": 8618,
      "موعة": 8619,
      "كثيرة": 8620,
      "بولترا": 8621,
      "حبك": 8622,
      "لذ": 8623,
      "يعلم": 8624,
      "بحركة": 8625,
      "نبغيك": 8626,
      "ونشوف": 8627,
      "خافو": 8628,
      "فالفيلا": 8629,
      "نااض": 8630,
      "سوقك": 8631,
      "خطبة": 8632,
      "فراغ": 8633,
      "هووم": 8634,
      "مرأة": 8635,
      "يكبر": 8636,
      "عطاني": 8637,
      "نحل": 8638,
      "نفض": 8639,
      "ومأ": 8640,
      "للداخل": 8641,
      "تزوجو": 8642,
      "أيلول": 8643,
      "فخطرة": 8644,
      "نطلق": 8645,
      "ليم": 8646,
      "دمها": 8647,
      "كيمص": 8648,
      "مانع": 8649,
      "لخدم": 8650,
      "العيا": 8651,
      "تتهضر": 8652,
      "كيتسنى": 8653,
      "ضعف": 8654,
      "مكيت": 8655,
      "بلس": 8656,
      "وسلم": 8657,
      "لكلينيك": 8658,
      "هازها": 8659,
      "فالعشية": 8660,
      "لبلاصتو": 8661,
      "مبين": 8662,
      "راكم": 8663,
      "ميلات": 8664,
      "فالكرسي": 8665,
      "وووية": 8666,
      "طايرة": 8667,
      "زايدة": 8668,
      "مرب": 8669,
      "ليلي": 8670,
      "كنموت": 8671,
      "شاعل": 8672,
      "وريني": 8673,
      "ومست": 8674,
      "طيف": 8675,
      "فوزية": 8676,
      "فكي": 8677,
      "نفيق": 8678,
      "معروف": 8679,
      "وجو": 8680,
      "السفر": 8681,
      "عنقتها": 8682,
      "وووق": 8683,
      "متبعها": 8684,
      "تكوون": 8685,
      "الانسان": 8686,
      "لراسو": 8687,
      "لحاج": 8688,
      "البش": 8689,
      "وقعو": 8690,
      "ومسح": 8691,
      "باباه": 8692,
      "البوص": 8693,
      "خاااا": 8694,
      "طرق": 8695,
      "ريخ": 8696,
      "حالتي": 8697,
      "يوصلو": 8698,
      "دارنا": 8699,
      "بااب": 8700,
      "مدمعين": 8701,
      "لدارها": 8702,
      "اثر": 8703,
      "شوا": 8704,
      "يديرها": 8705,
      "مصا": 8706,
      "انب": 8707,
      "كتقلبي": 8708,
      "تنسا": 8709,
      "راقب": 8710,
      "حركاتها": 8711,
      "ددد": 8712,
      "الغابة": 8713,
      "ولقات": 8714,
      "يشووف": 8715,
      "تتقلب": 8716,
      "مبارك": 8717,
      "موض": 8718,
      "كيبغيها": 8719,
      "دعاء": 8720,
      "ساااا": 8721,
      "مااان": 8722,
      "كف": 8723,
      "كتبو": 8724,
      "صوته": 8725,
      "حاولو": 8726,
      "بووس": 8727,
      "الطابلة": 8728,
      "غسلت": 8729,
      "مدرت": 8730,
      "ايبة": 8731,
      "دوخ": 8732,
      "كااي": 8733,
      "وغمز": 8734,
      "أمام": 8735,
      "سق": 8736,
      "فباب": 8737,
      "فالليل": 8738,
      ",,<": 8739,
      "بصحة": 8740,
      "لقاعة": 8741,
      "فايت": 8742,
      "تحا": 8743,
      "تلبسي": 8744,
      "مطي": 8745,
      "الميمة": 8746,
      "فيان": 8747,
      "كيطة": 8748,
      "روط": 8749,
      "التصرف": 8750,
      "ستاهلش": 8751,
      "حصل": 8752,
      "لهاا": 8753,
      "انصار": 8754,
      "قلتيها": 8755,
      "دمووع": 8756,
      "اخوي": 8757,
      "بجووج": 8758,
      "ندوق": 8759,
      "ورجليها": 8760,
      "بالجنب": 8761,
      "حاااجة": 8762,
      "نسايش": 8763,
      "جيكساو": 8764,
      "توتر": 8765,
      "كتحسي": 8766,
      "ااتوو": 8767,
      "خليتها": 8768,
      "وضوع": 8769,
      "لطبيب": 8770,
      "ههء": 8771,
      "البرهوشة": 8772,
      "باراكا": 8773,
      "أصيل": 8774,
      "حقا": 8775,
      "لكاس": 8776,
      "كتنفس": 8777,
      "تاحاجة": 8778,
      "دخلوها": 8779,
      "ضحي": 8780,
      "لكش": 8781,
      "بصراحة": 8782,
      "مغربية": 8783,
      "كبييرة": 8784,
      "شهيدة": 8785,
      "كتسناه": 8786,
      "لفمها": 8787,
      "بقااات": 8788,
      "طيط": 8789,
      "فهام": 8790,
      "المهمة": 8791,
      "نحيد": 8792,
      "ديالوو": 8793,
      "جابك": 8794,
      "سريعة": 8795,
      "اتمشي": 8796,
      "باللور": 8797,
      "كاتبان": 8798,
      "الحنة": 8799,
      "عنقوو": 8800,
      "غزالة": 8801,
      "un": 8802,
      "عكر": 8803,
      "وكاين": 8804,
      "الكتاب": 8805,
      "بياا": 8806,
      "فالشركة": 8807,
      "مسحي": 8808,
      "نتف": 8809,
      "نزلها": 8810,
      "نساا": 8811,
      "أسوار": 8812,
      "أنيس": 8813,
      "خبز": 8814,
      "ليكوم": 8815,
      "دموعو": 8816,
      "تالف": 8817,
      "مطر": 8818,
      "هلي": 8819,
      "لقهوة": 8820,
      "نهااار": 8821,
      "درتيها": 8822,
      "وغوت": 8823,
      "خصوو": 8824,
      "خدة": 8825,
      "لحة": 8826,
      "كتقرب": 8827,
      "يرد": 8828,
      "فازك": 8829,
      "ميلاد": 8830,
      "سرا": 8831,
      "ريضة": 8832,
      "كتدور": 8833,
      "بالسلامة": 8834,
      "قتلت": 8835,
      "قدروش": 8836,
      "ديتش": 8837,
      "عبدوو": 8838,
      "سااكت": 8839,
      "مخنوق": 8840,
      "زكية": 8841,
      "كولا": 8842,
      "ميرات": 8843,
      "ثي": 8844,
      "ردو": 8845,
      "ضبر": 8846,
      "وحس": 8847,
      "كيخلي": 8848,
      "نادي": 8849,
      "عرفتها": 8850,
      "السعادة": 8851,
      "هنايا": 8852,
      "فحص": 8853,
      "بضبط": 8854,
      "سطو": 8855,
      "امكن": 8856,
      "اصاا": 8857,
      "عاجبو": 8858,
      "دانيال": 8859,
      "اجتماع": 8860,
      "فعيني": 8861,
      "ونج": 8862,
      "تيشرت": 8863,
      "دريسينغ": 8864,
      "طحتي": 8865,
      "دونك": 8866,
      "حتاجش": 8867,
      "تلاتة": 8868,
      "دمر": 8869,
      "18": 8870,
      "شوهة": 8871,
      "قاصحة": 8872,
      "نعت": 8873,
      "الصلاة": 8874,
      "الكار": 8875,
      "كييف": 8876,
      "بنسبة": 8877,
      "اوطيل": 8878,
      "ززز": 8879,
      "عاطية": 8880,
      "تتو": 8881,
      "لكبيرة": 8882,
      "جوري": 8883,
      "معندكش": 8884,
      "صحيحة": 8885,
      "مامتيق": 8886,
      "خالتها": 8887,
      "ضاروري": 8888,
      "فمرة": 8889,
      "وغا": 8890,
      "طيرو": 8891,
      "قتك": 8892,
      "منووو": 8893,
      "الأمور": 8894,
      "كنتيش": 8895,
      "همها": 8896,
      "لوراق": 8897,
      "هداا": 8898,
      "الداار": 8899,
      "الماعن": 8900,
      "حذ": 8901,
      "فغي": 8902,
      "واصلة": 8903,
      "عافية": 8904,
      "قلبهاا": 8905,
      "نضرات": 8906,
      "رتاحت": 8907,
      "فودنيها": 8908,
      "وزي": 8909,
      "غام": 8910,
      "عندهوم": 8911,
      "تقولها": 8912,
      "ضض": 8913,
      "كييي": 8914,
      "كاتهضر": 8915,
      "جبك": 8916,
      "الدق": 8917,
      "الشخصية": 8918,
      "الضوء": 8919,
      "هههههههههه": 8920,
      "عتيقة": 8921,
      "بفففف": 8922,
      "عالله": 8923,
      "ونتوما": 8924,
      "مرين": 8925,
      "وصاافي": 8926,
      "اممممم": 8927,
      "نظراتو": 8928,
      "رقيق": 8929,
      "يااااك": 8930,
      "كملها": 8931,
      "بغيييت": 8932,
      "الحشمة": 8933,
      "كايفكر": 8934,
      "سانسور": 8935,
      "ملقات": 8936,
      "ااانة": 8937,
      "الحفل": 8938,
      "ماتبقايش": 8939,
      "سنمار": 8940,
      "الزمان": 8941,
      "الفردي": 8942,
      "بشعرها": 8943,
      "تعاودي": 8944,
      "منضر": 8945,
      "بيسين": 8946,
      "فتر": 8947,
      "قلال": 8948,
      "نتاليا": 8949,
      "ماعة": 8950,
      "فالجلسة": 8951,
      "اليها": 8952,
      "تقل": 8953,
      "عدك": 8954,
      "اعصاب": 8955,
      "كتبقى": 8956,
      "عنوان": 8957,
      "مخدة": 8958,
      "نااضت": 8959,
      "شغلي": 8960,
      "كَ": 8961,
      "انون": 8962,
      "انوت": 8963,
      "كانشوف": 8964,
      "بالان": 8965,
      "ماعرفش": 8966,
      "مبتسمة": 8967,
      "تدري": 8968,
      "لذلك": 8969,
      "سااعة": 8970,
      "كلامه": 8971,
      "ازاد": 8972,
      "مخربق": 8973,
      "ماين": 8974,
      "لاحو": 8975,
      "باتجاه": 8976,
      "تحتو": 8977,
      "الوان": 8978,
      "وخشا": 8979,
      "ماضي": 8980,
      "شافني": 8981,
      "الأقل": 8982,
      "وتهبط": 8983,
      "ومشاا": 8984,
      "عرفك": 8985,
      "بلاصتهم": 8986,
      "أليف": 8987,
      "لعام": 8988,
      "عاارفة": 8989,
      "نهرب": 8990,
      "صاحبتك": 8991,
      "تليفونو": 8992,
      "بوجه": 8993,
      "سلة": 8994,
      "فوجهي": 8995,
      "لحر": 8996,
      "لوقفة": 8997,
      "يجبد": 8998,
      "فالزنقة": 8999,
      "الساروت": 9000,
      "زدت": 9001,
      "السعدية": 9002,
      "هالك": 9003,
      "وفيها": 9004,
      "رييق": 9005,
      "حالها": 9006,
      "لصدرها": 9007,
      "الكم": 9008,
      "تيري": 9009,
      "بعدة": 9010,
      "ينز": 9011,
      "دادا": 9012,
      "حسس": 9013,
      "وقفاات": 9014,
      "الخطة": 9015,
      "ناقصة": 9016,
      "مئ": 9017,
      "كيلبس": 9018,
      "كرر": 9019,
      "مشع": 9020,
      "طلعتي": 9021,
      "اخرين": 9022,
      "تفرح": 9023,
      "ونات": 9024,
      "خلعها": 9025,
      "ودنيه": 9026,
      "بااااا": 9027,
      "خالتك": 9028,
      "دس": 9029,
      "قياس": 9030,
      "وغات": 9031,
      "بعقلك": 9032,
      "بالإ": 9033,
      "مسافر": 9034,
      "قه": 9035,
      "لر": 9036,
      "غياث": 9037,
      "اصا": 9038,
      "ضربي": 9039,
      "يحساب": 9040,
      "بسب": 9041,
      "قولك": 9042,
      "وونة": 9043,
      "var": 9044,
      "الآخر": 9045,
      "ونها": 9046,
      "بغيتيها": 9047,
      "يحفض": 9048,
      "تقادات": 9049,
      "الظلام": 9050,
      "سلت": 9051,
      "صعر": 9052,
      "طمن": 9053,
      "تاق": 9054,
      "طامو": 9055,
      "العزيز": 9056,
      "وبديت": 9057,
      "نقية": 9058,
      "غنديرو": 9059,
      "ادهم": 9060,
      "كتعوج": 9061,
      "فضيلة": 9062,
      "مبغيتيش": 9063,
      "بتيني": 9064,
      "بسهولة": 9065,
      "جبدي": 9066,
      "الدقة": 9067,
      "ضعيف": 9068,
      "سحا": 9069,
      "سيارتو": 9070,
      "قس": 9071,
      "يزن": 9072,
      "بالخوف": 9073,
      "متن": 9074,
      "معاد": 9075,
      "تشربي": 9076,
      "جاوباتو": 9077,
      "اليازيد": 9078,
      "انفاس": 9079,
      "اليش": 9080,
      "ولدنا": 9081,
      "بأسى": 9082,
      "نفطرو": 9083,
      "الكن": 9084,
      "زيان": 9085,
      "طاجي": 9086,
      "فقف": 9087,
      "طبيعية": 9088,
      "نشفات": 9089,
      "آدام": 9090,
      "فحنكو": 9091,
      "ومنين": 9092,
      "ماعليش": 9093,
      "هورة": 9094,
      "ميزة": 9095,
      "ورها": 9096,
      "فالتيليفون": 9097,
      "معرفش": 9098,
      "خافتة": 9099,
      "وامر": 9100,
      "بناا": 9101,
      "القميجة": 9102,
      "مخشي": 9103,
      "صبرو": 9104,
      "فارقو": 9105,
      "بملل": 9106,
      "عامين": 9107,
      "قيص": 9108,
      "مستر": 9109,
      "صدروو": 9110,
      "فوا": 9111,
      "الزوج": 9112,
      "رقب": 9113,
      "غانمشيو": 9114,
      "وحدين": 9115,
      "ذات": 9116,
      "ممرضة": 9117,
      "وفيه": 9118,
      "ىء": 9119,
      "يبدل": 9120,
      "حالا": 9121,
      "تنفخ": 9122,
      "الزهر": 9123,
      "تنفسات": 9124,
      "فجنابها": 9125,
      "بفرح": 9126,
      "كيداير": 9127,
      "تكى": 9128,
      "جوكر": 9129,
      "لدارنا": 9130,
      "السيمانة": 9131,
      "أخ": 9132,
      "ولااا": 9133,
      "تاهيا": 9134,
      "فالطموبيل": 9135,
      "لحبس": 9136,
      "لأول": 9137,
      "ذراعها": 9138,
      "أخيرا": 9139,
      "بظهر": 9140,
      "فصباح": 9141,
      "حاضية": 9142,
      "....:": 9143,
      "ودع": 9144,
      "تنسى": 9145,
      "بهار": 9146,
      "الجملة": 9147,
      "تخن": 9148,
      "11": 9149,
      "دوس": 9150,
      "دوشي": 9151,
      "وبان": 9152,
      "خالتو": 9153,
      "();": 9154,
      "نبض": 9155,
      "العي": 9156,
      "متل": 9157,
      "صدري": 9158,
      "اخرا": 9159,
      "سكتو": 9160,
      "دبااا": 9161,
      "ينغ": 9162,
      "تعب": 9163,
      "واعرة": 9164,
      ".~": 9165,
      "صاااا": 9166,
      "تيضحك": 9167,
      "وتمات": 9168,
      "للعندو": 9169,
      "عقلتي": 9170,
      "ماعارفش": 9171,
      "حضي": 9172,
      "رقة": 9173,
      "عجاب": 9174,
      "وبقى": 9175,
      "وفتح": 9176,
      "لعقل": 9177,
      "الحوت": 9178,
      "راهش": 9179,
      "مريكا": 9180,
      "صورو": 9181,
      "عضها": 9182,
      "عاونو": 9183,
      "المسخو": 9184,
      "ion": 9185,
      "جدية": 9186,
      "حيتها": 9187,
      "وربي": 9188,
      "بنرفزة": 9189,
      "الجميع": 9190,
      "كينا": 9191,
      "وسيري": 9192,
      "كيموت": 9193,
      "وتلفت": 9194,
      "فرطوطو": 9195,
      "حمارو": 9196,
      "صاحبك": 9197,
      "هانيا": 9198,
      "ووز": 9199,
      "توب": 9200,
      "نوعا": 9201,
      "رااب": 9202,
      "طلبي": 9203,
      "لبيتك": 9204,
      "كلاط": 9205,
      "صفحة": 9206,
      "إيلا": 9207,
      "سايق": 9208,
      "معلي": 9209,
      "المطعم": 9210,
      "معارفة": 9211,
      "السلط": 9212,
      "الأخرى": 9213,
      "فالسقف": 9214,
      "الزو": 9215,
      "البرا": 9216,
      "لماا": 9217,
      "عارفاها": 9218,
      "النساء": 9219,
      "فالمراية": 9220,
      "يسهل": 9221,
      "مغرغرين": 9222,
      "وهاش": 9223,
      "فاتها": 9224,
      "برهوشة": 9225,
      "ماتحس": 9226,
      "حطة": 9227,
      "تلاقاو": 9228,
      "الحيوان": 9229,
      "فحوايجها": 9230,
      "مجاتش": 9231,
      "الهي": 9232,
      "..؟؟": 9233,
      "ماغادي": 9234,
      "كنحاول": 9235,
      "تااني": 9236,
      "حفصة": 9237,
      "جح": 9238,
      "ااهم": 9239,
      "والدموع": 9240,
      "فالصالة": 9241,
      "ماتبقاش": 9242,
      "يشدو": 9243,
      "ونزلو": 9244,
      "افف": 9245,
      "لدابا": 9246,
      "واااااا": 9247,
      "وطلعو": 9248,
      "سياا": 9249,
      "متحم": 9250,
      "لوكاس": 9251,
      "أنفا": 9252,
      "وحطو": 9253,
      "تدي": 9254,
      "زها": 9255,
      "للحبس": 9256,
      "برها": 9257,
      "العريس": 9258,
      "مسدود": 9259,
      "نتغداو": 9260,
      "امري": 9261,
      "فلون": 9262,
      "شفاه": 9263,
      "يرجعو": 9264,
      "كيلو": 9265,
      "فعال": 9266,
      "البوليسي": 9267,
      "ماقادراش": 9268,
      "النظرة": 9269,
      "ابب": 9270,
      "الريا": 9271,
      "ميين": 9272,
      "تشري": 9273,
      "الصغي": 9274,
      "غنجي": 9275,
      "تصرفي": 9276,
      "قبالت": 9277,
      "حكات": 9278,
      "نرد": 9279,
      "وخدا": 9280,
      "يعط": 9281,
      "كته": 9282,
      "متقدرش": 9283,
      "مايدير": 9284,
      "كتز": 9285,
      "وتكلم": 9286,
      "بالغ": 9287,
      "متخافش": 9288,
      "العود": 9289,
      "مختل": 9290,
      "باتول": 9291,
      "لبساتها": 9292,
      "احل": 9293,
      "لطوموبيل": 9294,
      "باكية": 9295,
      "كااملة": 9296,
      "باقيين": 9297,
      "وووب": 9298,
      "عفااااك": 9299,
      "كتنقز": 9300,
      "عليييها": 9301,
      "عرفني": 9302,
      "تفع": 9303,
      "ادريس": 9304,
      "عاادي": 9305,
      "تلاقات": 9306,
      "تلافتت": 9307,
      "موجود": 9308,
      "وقتها": 9309,
      "وتع": 9310,
      "توص": 9311,
      "جااوب": 9312,
      "تاذ": 9313,
      "السوارت": 9314,
      "قرى": 9315,
      "نون": 9316,
      "الدا": 9317,
      "لياااا": 9318,
      "باكي": 9319,
      "بابة": 9320,
      "الكلينيك": 9321,
      "مااالك": 9322,
      "بمرة": 9323,
      "غزال": 9324,
      "وحة": 9325,
      "حوايجهم": 9326,
      "تبعاتها": 9327,
      "قراب": 9328,
      "فخاضها": 9329,
      "دجاج": 9330,
      "وفمها": 9331,
      "دورت": 9332,
      "العجب": 9333,
      "عنقني": 9334,
      "خليهاش": 9335,
      "مكرهش": 9336,
      "إبتسامة": 9337,
      "صبي": 9338,
      "هبيلة": 9339,
      "يقطع": 9340,
      "لاثة": 9341,
      "ييدة": 9342,
      "كلست": 9343,
      "خاارج": 9344,
      "تخلعت": 9345,
      "كتسا": 9346,
      "بضيق": 9347,
      "هالو": 9348,
      "بيهوم": 9349,
      "تصويرة": 9350,
      "بشوو": 9351,
      "كبييير": 9352,
      "معنقة": 9353,
      "تعابير": 9354,
      "ای": 9355,
      "كااامل": 9356,
      "مناسبة": 9357,
      "تاااا": 9358,
      "قنط": 9359,
      "……": 9360,
      "همممم": 9361,
      "لقو": 9362,
      "رااحة": 9363,
      "اااااااااااا": 9364,
      "تبوس": 9365,
      "طفل": 9366,
      "ايش": 9367,
      "دوخة": 9368,
      "وسروال": 9369,
      "جينز": 9370,
      "الوالدة": 9371,
      "كتشوفي": 9372,
      "ونيت": 9373,
      "واااو": 9374,
      "جسمو": 9375,
      "سنسلة": 9376,
      "رجولية": 9377,
      "بانلها": 9378,
      "تأفأ": 9379,
      "نلقاك": 9380,
      "ابي": 9381,
      "صووت": 9382,
      "يمسخك": 9383,
      "ايفة": 9384,
      "ييق": 9385,
      "لسان": 9386,
      "بدورها": 9387,
      "ينهم": 9388,
      "بيكتر": 9389,
      "مكينش": 9390,
      "جليزية": 9391,
      "الهواء": 9392,
      "فراق": 9393,
      "ماوقع": 9394,
      "ووالو": 9395,
      "وائل": 9396,
      "حدد": 9397,
      "مكنتيش": 9398,
      "مصي": 9399,
      "لخبار": 9400,
      "هنى": 9401,
      "لولاد": 9402,
      "وماما": 9403,
      "الفو": 9404,
      "ليدي": 9405,
      "....!": 9406,
      "للأسف": 9407,
      "ودنو": 9408,
      "وواحد": 9409,
      "ييييين": 9410,
      "تخبي": 9411,
      "القرآن": 9412,
      "اهي": 9413,
      "ارض": 9414,
      "تحاول": 9415,
      "وكا": 9416,
      "دوري": 9417,
      "اصحبي": 9418,
      "نخليها": 9419,
      "شديد": 9420,
      "الأولى": 9421,
      "لغي": 9422,
      "هجر": 9423,
      "ااتهاا": 9424,
      "فالكو": 9425,
      "بتن": 9426,
      "تعذ": 9427,
      "عائلت": 9428,
      "أية": 9429,
      "فجبهتها": 9430,
      "وگ": 9431,
      "سمم": 9432,
      "لفووق": 9433,
      "حميدة": 9434,
      "الأسود": 9435,
      "جمل": 9436,
      "زيي": 9437,
      "صلح": 9438,
      "وقر": 9439,
      "خلال": 9440,
      "خلعني": 9441,
      "بدم": 9442,
      "بينش": 9443,
      "وكلسات": 9444,
      "الساجدي": 9445,
      "دمات": 9446,
      "فلع": 9447,
      "راسنا": 9448,
      "راسكم": 9449,
      "الخرا": 9450,
      "تصر": 9451,
      "تخليها": 9452,
      "تخنق": 9453,
      "سولت": 9454,
      "أمينة": 9455,
      "شعلو": 9456,
      "فمكان": 9457,
      "نفخ": 9458,
      "يطير": 9459,
      "مابقيت": 9460,
      "المكياج": 9461,
      "السرجم": 9462,
      "سرطات": 9463,
      "كتضرب": 9464,
      "كاتسمع": 9465,
      "وعطاها": 9466,
      "شنايفو": 9467,
      "ترت": 9468,
      "خية": 9469,
      "نبر": 9470,
      "كلكم": 9471,
      "طيري": 9472,
      "قيلة": 9473,
      "معرفات": 9474,
      "تغداو": 9475,
      "ودايرة": 9476,
      "داام": 9477,
      "دويو": 9478,
      "سعدية": 9479,
      "تحلات": 9480,
      "ريوس": 9481,
      "كتحمق": 9482,
      "الحمار": 9483,
      "مقصد": 9484,
      "مزوجين": 9485,
      "تلقاي": 9486,
      "ننعس": 9487,
      "مكاا": 9488,
      "حيااة": 9489,
      "lo": 9490,
      "يما": 9491,
      "موحال": 9492,
      "كايصوني": 9493,
      "ضريف": 9494,
      "_مريم": 9495,
      "تفاهم": 9496,
      "ماباغي": 9497,
      "النبي": 9498,
      "تزوجات": 9499,
      "محاوط": 9500,
      "المشاعر": 9501,
      "وشا": 9502,
      "فاللخر": 9503,
      "طيلي": 9504,
      "بصبع": 9505,
      "تسمح": 9506,
      "ودرت": 9507,
      "واعر": 9508,
      "وقتو": 9509,
      "والش": 9510,
      "علامات": 9511,
      "لبلاد": 9512,
      "كتوجد": 9513,
      "مولاي": 9514,
      "شفقة": 9515,
      "يحيي": 9516,
      "ساعتو": 9517,
      "لمسات": 9518,
      "كبرتي": 9519,
      "فجر": 9520,
      "كيو": 9521,
      "فالفراش": 9522,
      "رقبتها": 9523,
      "فهمها": 9524,
      "وضع": 9525,
      "ومشاات": 9526,
      "حضن": 9527,
      "هاهوا": 9528,
      "كتسوط": 9529,
      "فاين": 9530,
      "خرجوو": 9531,
      "درس": 9532,
      "بخبث": 9533,
      "شنوا": 9534,
      "منفوخين": 9535,
      "وبل": 9536,
      "نتييي": 9537,
      "اللخر": 9538,
      "شاوفو": 9539,
      "عاشت": 9540,
      "همنيش": 9541,
      "معلم": 9542,
      "فلول": 9543,
      "فايدها": 9544,
      "الحمدلله": 9545,
      "-‏": 9546,
      "سلعة": 9547,
      "فصالون": 9548,
      "مجبد": 9549,
      "هلا": 9550,
      "كتاا": 9551,
      "فالجنب": 9552,
      "زيدش": 9553,
      "ذاك": 9554,
      "ونزلت": 9555,
      "تعيشي": 9556,
      "دفن": 9557,
      "جيتو": 9558,
      "يتحرك": 9559,
      "قيد": 9560,
      "هاااه": 9561,
      "فخدها": 9562,
      "تعرفو": 9563,
      "بهي": 9564,
      "ورش": 9565,
      "بلور": 9566,
      "فالبيض": 9567,
      "فاللوطو": 9568,
      "مسوق": 9569,
      "يعطيها": 9570,
      "وكسيرا": 9571,
      "طلة": 9572,
      "جلات": 9573,
      "الصمد": 9574,
      "خوفها": 9575,
      "نعستي": 9576,
      "حديث": 9577,
      "مرحلة": 9578,
      "مدخل": 9579,
      "مراقب": 9580,
      "افنان": 9581,
      "شطح": 9582,
      "الجنب": 9583,
      "الافكار": 9584,
      "رجعنا": 9585,
      "تمشا": 9586,
      "ركان": 9587,
      "شی": 9588,
      "ظل": 9589,
      "نقا": 9590,
      "الجنة": 9591,
      "ماقل": 9592,
      "ناخدو": 9593,
      "غية": 9594,
      "همسة": 9595,
      "لاتش": 9596,
      "تخي": 9597,
      "حححح": 9598,
      "ووجها": 9599,
      "شكي": 9600,
      "وطلعت": 9601,
      "متة": 9602,
      "للت": 9603,
      "صاحبة": 9604,
      "باتو": 9605,
      "صعب": 9606,
      "طااا": 9607,
      "كوب": 9608,
      "لبعيد": 9609,
      "لأنه": 9610,
      "جلد": 9611,
      "جنن": 9612,
      "باارك": 9613,
      "باال": 9614,
      "ونط": 9615,
      "ورااه": 9616,
      "هااذ": 9617,
      "العم": 9618,
      "سكتت": 9619,
      "الاجتماع": 9620,
      "ويضحك": 9621,
      "فعاي": 9622,
      "دح": 9623,
      "ولهم": 9624,
      "كيدق": 9625,
      "وديري": 9626,
      "ديالهاا": 9627,
      "ضاحك": 9628,
      "ترخات": 9629,
      "ميريام": 9630,
      "كتها": 9631,
      "خيبة": 9632,
      "ضنش": 9633,
      "مادرت": 9634,
      "توحشك": 9635,
      "هذشي": 9636,
      "البالكون": 9637,
      "فودنها": 9638,
      "صك": 9639,
      "كليا": 9640,
      "فركل": 9641,
      "الرعب": 9642,
      "عمرهم": 9643,
      "يكوون": 9644,
      "الفيلم": 9645,
      "فعلها": 9646,
      "بارتباك": 9647,
      "بعاد": 9648,
      "زنا": 9649,
      "اللا": 9650,
      "تاد": 9651,
      "هدف": 9652,
      "كيتحرك": 9653,
      "الغزالة": 9654,
      "بشرتها": 9655,
      "تقدمات": 9656,
      "لسي": 9657,
      "ويكون": 9658,
      "مخي": 9659,
      "تفكيرها": 9660,
      "غالطة": 9661,
      "حزينة": 9662,
      "سالة": 9663,
      "فييق": 9664,
      "كارز": 9665,
      "هربت": 9666,
      "عتارف": 9667,
      "مكا": 9668,
      "موجه": 9669,
      "ااود": 9670,
      "وتحط": 9671,
      "عيق": 9672,
      "حرى": 9673,
      "وشدو": 9674,
      "عشر": 9675,
      "إيجاب": 9676,
      "يجلس": 9677,
      "اختا": 9678,
      "حقد": 9679,
      "صفة": 9680,
      "كاتسنا": 9681,
      "العشرة": 9682,
      "بشوووية": 9683,
      "كالسين": 9684,
      "خروج": 9685,
      "دااار": 9686,
      "عباد": 9687,
      "عاب": 9688,
      "ويلة": 9689,
      "طاهر": 9690,
      "العمل": 9691,
      "بخيير": 9692,
      "دااير": 9693,
      "زفرات": 9694,
      "se": 9695,
      "ببراءة": 9696,
      "كيتنهد": 9697,
      "شور": 9698,
      "ميه": 9699,
      "لبكا": 9700,
      "متشرف": 9701,
      "شهرين": 9702,
      "بسيط": 9703,
      "بدوك": 9704,
      "وباغي": 9705,
      "بدينا": 9706,
      "جايبة": 9707,
      "نيييي": 9708,
      "وتفكر": 9709,
      "بحقد": 9710,
      "كياكلو": 9711,
      "التفكير": 9712,
      "عوو": 9713,
      "خشن": 9714,
      "الخر": 9715,
      "رفعات": 9716,
      "ضريفة": 9717,
      "قداامو": 9718,
      "لجيهت": 9719,
      "مكانت": 9720,
      "يهد": 9721,
      "ييلي": 9722,
      "حياتنا": 9723,
      "مسرح": 9724,
      "حنيكاتها": 9725,
      "السوداء": 9726,
      "جواا": 9727,
      "كيعجبني": 9728,
      "ومين": 9729,
      "طوفة": 9730,
      "تخطف": 9731,
      "خطأ": 9732,
      "اجيو": 9733,
      "كلاص": 9734,
      "نجيبها": 9735,
      "لعيالات": 9736,
      "احي": 9737,
      "نخاف": 9738,
      "وعليكم": 9739,
      "التلفون": 9740,
      "ديكشي": 9741,
      "جهل": 9742,
      "تينيش": 9743,
      "مرفوع": 9744,
      "بهدووء": 9745,
      "حفظ": 9746,
      "تاعو": 9747,
      "مترد": 9748,
      "شدلها": 9749,
      "يشرب": 9750,
      "الخدامات": 9751,
      "شووفي": 9752,
      "يبقاو": 9753,
      "بيسان": 9754,
      "حافظ": 9755,
      "بحرارة": 9756,
      "مونطو": 9757,
      "ايدهاا": 9758,
      "نقدرش": 9759,
      "دموو": 9760,
      "لبييت": 9761,
      "حبات": 9762,
      "لكون": 9763,
      "تاكد": 9764,
      "رجعاات": 9765,
      "بدلع": 9766,
      "المشاكيل": 9767,
      "الدوخة": 9768,
      "فما": 9769,
      "تيتيز": 9770,
      "كنحلم": 9771,
      "وجيت": 9772,
      "حيح": 9773,
      "بلاصت": 9774,
      "كدبش": 9775,
      "رسالة": 9776,
      "تبت": 9777,
      "مطول": 9778,
      "كوا": 9779,
      "لاجة": 9780,
      "للجهة": 9781,
      "الدني": 9782,
      "بدورو": 9783,
      "دوار": 9784,
      "وطيل": 9785,
      "عيم": 9786,
      "الصور": 9787,
      "سطل": 9788,
      "منتا": 9789,
      "كيدورو": 9790,
      "يتحل": 9791,
      "بغيتيه": 9792,
      "فاتح": 9793,
      "طرييق": 9794,
      "عظ": 9795,
      "ميني": 9796,
      "وطاحت": 9797,
      "يهم": 9798,
      "ااارة": 9799,
      "جااب": 9800,
      "صورتها": 9801,
      "رضي": 9802,
      "وحيدات": 9803,
      "منش": 9804,
      "تياح": 9805,
      "تخشا": 9806,
      "طالعين": 9807,
      "ثلاث": 9808,
      "اقرب": 9809,
      "بشنو": 9810,
      "تحشم": 9811,
      "جاااا": 9812,
      "كيه": 9813,
      "كيقلبو": 9814,
      "فتش": 9815,
      "التاني": 9816,
      "جيهتي": 9817,
      "عطاهم": 9818,
      "عاير": 9819,
      "كتنهد": 9820,
      "رشات": 9821,
      "مفق": 9822,
      "يبوسها": 9823,
      "منبعد": 9824,
      "فالموضوع": 9825,
      "گر": 9826,
      "قاال": 9827,
      "وعطا": 9828,
      "يهدر": 9829,
      "عشت": 9830,
      "مقادراش": 9831,
      "امرأة": 9832,
      "لغرفتها": 9833,
      "حجر": 9834,
      "مووو": 9835,
      "بالنعاس": 9836,
      "ويعاود": 9837,
      "تكرف": 9838,
      "ودارو": 9839,
      "ونوض": 9840,
      "بالبك": 9841,
      "السين": 9842,
      "بغيتكش": 9843,
      "وخل": 9844,
      "وطو": 9845,
      "تيك": 9846,
      "واخااا": 9847,
      "غيخرج": 9848,
      "ييينة": 9849,
      "لقاش": 9850,
      "عصبي": 9851,
      "أشقر": 9852,
      "فاخيته": 9853,
      "سهر": 9854,
      "مبغيت": 9855,
      "ناية": 9856,
      "للعندها": 9857,
      "يييب": 9858,
      "رتهم": 9859,
      "هبطها": 9860,
      "هاااش": 9861,
      "الثلج": 9862,
      "كنبغيه": 9863,
      "يقولو": 9864,
      "عروة": 9865,
      "غطاها": 9866,
      "ونسي": 9867,
      "ييبة": 9868,
      "فرع": 9869,
      "بتساامة": 9870,
      "صبحتي": 9871,
      "تافقنا": 9872,
      "ِي": 9873,
      "لاما": 9874,
      "منيتك": 9875,
      "ايس": 9876,
      "ارتا": 9877,
      "راااسك": 9878,
      "نهبطو": 9879,
      "كتحلم": 9880,
      "توم": 9881,
      "سمحيليا": 9882,
      "انسور": 9883,
      "مفيك": 9884,
      "نقاد": 9885,
      "خليتك": 9886,
      "تصل": 9887,
      "عاجبك": 9888,
      "بأي": 9889,
      "تشي": 9890,
      "طت": 9891,
      "غتس": 9892,
      "يعرفو": 9893,
      "تابعة": 9894,
      "ميلو": 9895,
      "مزن": 9896,
      "نفسه": 9897,
      "وهات": 9898,
      "مستشفى": 9899,
      "صينية": 9900,
      "فجنبها": 9901,
      "كطير": 9902,
      "مادا": 9903,
      "سامية": 9904,
      "لقاك": 9905,
      "يعطيه": 9906,
      "الهدوء": 9907,
      "نضاضر": 9908,
      "فلحظة": 9909,
      "وراسها": 9910,
      "يااااا": 9911,
      "ونمشيو": 9912,
      "مغوبش": 9913,
      "ماز": 9914,
      "منهنا": 9915,
      "ستغرب": 9916,
      "العاا": 9917,
      "بشدة": 9918,
      "دعوة": 9919,
      "يقتلو": 9920,
      "فينو": 9921,
      "مولف": 9922,
      "لابتها": 9923,
      "••••": 9924,
      "فغرفة": 9925,
      "نشاء": 9926,
      "يجاوب": 9927,
      "ناكلو": 9928,
      "رجان": 9929,
      "بعوين": 9930,
      "بترجي": 9931,
      "التعب": 9932,
      "ماتقول": 9933,
      "كااات": 9934,
      "زايدون": 9935,
      "لوور": 9936,
      "كتعض": 9937,
      "متقول": 9938,
      "بنضرات": 9939,
      "درووج": 9940,
      "عينيهااا": 9941,
      "هكدا": 9942,
      "تبدلو": 9943,
      "لرض": 9944,
      "وغمض": 9945,
      "الينا": 9946,
      "منح": 9947,
      "كاد": 9948,
      "الملا": 9949,
      "توصلي": 9950,
      "زيك": 9951,
      "طيحي": 9952,
      "بطو": 9953,
      "الأخيرة": 9954,
      "المنضر": 9955,
      "تراجع": 9956,
      "كتبقا": 9957,
      "يامين": 9958,
      "وتخرج": 9959,
      "كايحاول": 9960,
      "الحاد": 9961,
      "مخلياه": 9962,
      "بحسرة": 9963,
      "صحتك": 9964,
      "باز": 9965,
      "كتبات": 9966,
      "للات": 9967,
      "تشدو": 9968,
      "بااان": 9969,
      "سيفتها": 9970,
      "تلك": 9971,
      "ديلمك": 9972,
      "ماشاف": 9973,
      "ريبة": 9974,
      "نترات": 9975,
      "مضان": 9976,
      "سلو": 9977,
      "ونش": 9978,
      "ااااااش": 9979,
      "تفوووو": 9980,
      "مؤخرا": 9981,
      "كتخمم": 9982,
      "برب": 9983,
      "فشعرو": 9984,
      "يتحكم": 9985,
      "كايهضر": 9986,
      "باينين": 9987,
      "صدام": 9988,
      "طمة": 9989,
      "وتوجهات": 9990,
      "المز": 9991,
      "مرسومة": 9992,
      "نضرة": 9993,
      "احمم": 9994,
      "الشرطي": 9995,
      "مطلعة": 9996,
      "خطا": 9997,
      "طيا": 9998,
      "لاخرا": 9999,
      "منق": 10000,
      "سيغ": 10001,
      "العذاب": 10002,
      "الشال": 10003,
      "الشان": 10004,
      "مغديش": 10005,
      "معااها": 10006,
      "سروالو": 10007,
      "مفتوح": 10008,
      "خمة": 10009,
      "مابقيتيش": 10010,
      "تنقز": 10011,
      "تستاهل": 10012,
      "تخدمي": 10013,
      "لانه": 10014,
[...]
